{"<|endoftext|>":0,"!":1,"\"":2,"#":3,"$":4,"%":5,"&":6,"'":7,"(":8,")":9,"*":10,"+":11,",":12,"-":13,".":14,"/":15,"0":16,"1":17,"2":18,"3":19,"4":20,"5":21,"6":22,"7":23,"8":24,"9":25,":":26,";":27,"<":28,"=":29,">":30,"?":31,"@":32,"A":33,"B":34,"C":35,"D":36,"E":37,"F":38,"G":39,"H":40,"I":41,"J":42,"K":43,"L":44,"M":45,"N":46,"O":47,"P":48,"Q":49,"R":50,"S":51,"T":52,"U":53,"V":54,"W":55,"X":56,"Y":57,"Z":58,"[":59,"\\":60,"]":61,"^":62,"_":63,"`":64,"a":65,"b":66,"c":67,"d":68,"e":69,"f":70,"g":71,"h":72,"i":73,"j":74,"k":75,"l":76,"m":77,"n":78,"o":79,"p":80,"q":81,"r":82,"s":83,"t":84,"u":85,"v":86,"w":87,"x":88,"y":89,"z":90,"{":91,"|":92,"}":93,"~":94,"¡":95,"¢":96,"£":97,"¤":98,"¥":99,"¦":100,"§":101,"¨":102,"©":103,"ª":104,"«":105,"¬":106,"®":107,"¯":108,"°":109,"±":110,"²":111,"³":112,"´":113,"µ":114,"¶":115,"·":116,"¸":117,"¹":118,"º":119,"»":120,"¼":121,"½":122,"¾":123,"¿":124,"À":125,"Á":126,"Â":127,"Ã":128,"Ä":129,"Å":130,"Æ":131,"Ç":132,"È":133,"É":134,"Ê":135,"Ë":136,"Ì":137,"Í":138,"Î":139,"Ï":140,"Ð":141,"Ñ":142,"Ò":143,"Ó":144,"Ô":145,"Õ":146,"Ö":147,"×":148,"Ø":149,"Ù":150,"Ú":151,"Û":152,"Ü":153,"Ý":154,"Þ":155,"ß":156,"à":157,"á":158,"â":159,"ã":160,"ä":161,"å":162,"æ":163,"ç":164,"è":165,"é":166,"ê":167,"ë":168,"ì":169,"í":170,"î":171,"ï":172,"ð":173,"ñ":174,"ò":175,"ó":176,"ô":177,"õ":178,"ö":179,"÷":180,"ø":181,"ù":182,"ú":183,"û":184,"ü":185,"ý":186,"þ":187,"ÿ":188,"Ā":189,"ā":190,"Ă":191,"ă":192,"Ą":193,"ą":194,"Ć":195,"ć":196,"Ĉ":197,"ĉ":198,"Ċ":199,"ċ":200,"Č":201,"č":202,"Ď":203,"ď":204,"Đ":205,"đ":206,"Ē":207,"ē":208,"Ĕ":209,"ĕ":210,"Ė":211,"ė":212,"Ę":213,"ę":214,"Ě":215,"ě":216,"Ĝ":217,"ĝ":218,"Ğ":219,"ğ":220,"Ġ":221,"ġ":222,"Ģ":223,"ģ":224,"Ĥ":225,"ĥ":226,"Ħ":227,"ħ":228,"Ĩ":229,"ĩ":230,"Ī":231,"ī":232,"Ĭ":233,"ĭ":234,"Į":235,"į":236,"İ":237,"ı":238,"Ĳ":239,"ĳ":240,"Ĵ":241,"ĵ":242,"Ķ":243,"ķ":244,"ĸ":245,"Ĺ":246,"ĺ":247,"Ļ":248,"ļ":249,"Ľ":250,"ľ":251,"Ŀ":252,"ŀ":253,"Ł":254,"ł":255,"Ń":256,"Ġt":257,"he":258,"Ġa":259,"in":260,"Ġthe":261,"er":262,"on":263,"Ġ,":264,"re":265,"Ġs":266,"ed":267,"Ġw":268,"Ġo":269,"nd":270,"at":271,"Ġ.":272,"or":273,"en":274,"Ġc":275,"it":276,"Ġf":277,"is":278,"es":279,"ar":280,"Ġb":281,"Ġof":282,"an":283,"Ġin":284,"al":285,"ing":286,"Ġp":287,"as":288,"Ġand":289,"Ġto":290,"ic":291,"ro":292,"Ġm":293,"Ġd":294,"Ġh":295,"ion":296,"le":297,"ou":298,"ĠT":299,"Ġre":300,"Ġ=":301,"ĠS":302,"il":303,"ĠA":304,"ent":305,"Ġ\"":306,"Ġ1":307,"Ġth":308,"st":309,"el":310,"ĠC":311,"Ġl":312,"Ġ@":313,"om":314,"Ġe":315,"ĠĊ":316,"am":317,"Ġn":318,"ad":319,"ac":320,"Ġwas":321,"ĠM":322,"ĠB":323,"ec":324,"Ġon":325,"ĠThe":326,"ly":327,"ur":328,"Ġ'":329,"et":330,"id":331,"ol":332,"Ġg":333,"im":334,"ĠI":335,"-@":336,"Ġ@-@":337,"Ġfor":338,"ir":339,"ig":340,"iv":341,"ot":342,"ter":343,"ĠH":344,"ut":345,"Ġas":346,"us":347,"ow":348,"ith":349,"ay":350,"Ġ2":351,"ĠP":352,"Ġst":353,"Ġhe":354,"ver":355,"ation":356,"Ġwith":357,"Ġbe":358,"ĠR":359,"Ġthat":360,"ĠD":361,"ce":362,"un":363,"em":364,"ĠW":365,"Ġwh":366,"ĠF":367,"ch":368,"Ġby":369,"th":370,"Ġal":371,"Ġ)":372,"Ġ(":373,"ĠL":374,"ul":375,"ĠG":376,"Ġis":377,"Ġcon":378,"ers":379,"Ġat":380,"ct":381,"ĠN":382,"ra":383,"os":384,"Ġ19":385,"Ġan":386,"Ġit":387,"her":388,"rom":389,"and":390,"um":391,"ĠJ":392,"est":393,"00":394,"Ġhis":395,"ĠE":396,"ag":397,"av":398,"ain":399,"ri":400,"od":401,"Ġfrom":402,"ĠO":403,"ist":404,"Ġcom":405,"Ġv":406,"Ġpro":407,"op":408,"ill":409,"ore":410,"if":411,"ld":412,"up":413,"Ġr":414,"ew":415,"ere":416,"res":417,"igh":418,"ĠIn":419,"ies":420,"Ġde":421,"ber":422,"art":423,"ard":424,"ort":425,"Ġse":426,"ich":427,"Ġwere":428,"ate":429,"all":430,"ak":431,"ant":432,"oc":433,"ud":434,"ap":435,"Ġex":436,"qu":437,"ong":438,"ab":439,"Ġch":440,"Ġor":441,"ĠK":442,"gh":443,"ear":444,"ess":445,"ated":446,"Ġpl":447,"Ġsh":448,"ity":449,"ip":450,"ive":451,"ame":452,"ĠU":453,"Ġâ":454,"Ġhad":455,"ect":456,"ack":457,"ĠSt":458,"ĠâĢ":459,"Ġsu":460,"ast":461,"se":462,"red":463,"Ġk":464,"ge":465,"Ġwhich":466,"our":467,"ment":468,"Ġle":469,"und":470,"Ġare":471,"ov":472,"ian":473,"ial":474,"Ġnot":475,"ell":476,"Ġsp":477,"ost":478,"Ġy":479,"ight":480,"ia":481,"ord":482,"ust":483,"ary":484,"ine":485,"ther":486,"pt":487,"rit":488,"Ġ3":489,"oun":490,"pp":491,"ical":492,"ĠCh":493,"ave":494,"Ġun":495,"Ġ200":496,"cc":497,"Ġinc":498,"fter":499,"ould":500,"ĠV":501,"Ġbut":502,"irst":503,"ish":504,"ous":505,"te":506,"ff":507,"ions":508,"so":509,"Ġcomp":510,"Ġ20":511,"ide":512,"Ġro":513,"ure":514,"Ġwhe":515,"ub":516,"Ġar":517,"Ġcont":518,"ie":519,"Ġ;":520,"og":521,"ign":522,"Ġfirst":523,"Ġcl":524,"wo":525,"Ġher":526,"ry":527,"ue":528,"Ġits":529,"ass":530,"Ġtheir":531,"orm":532,"ĠâĢĵ":533,"ok":534,"ork":535,"Ġint":536,"Ġres":537,"ĠHe":538,"Ġ:":539,"ater":540,"Ġalso":541,"Ġab":542,"ond":543,"Ġad":544,"ome":545,"out":546,"ran":547,"mer":548,"ire":549,"hed":550,"ru":551,"Ġus":552,"age":553,"du":554,"Ġ4":555,"ime":556,"low":557,"Ġper":558,"per":559,"Ġwho":560,"Ġ5":561,"ĠTh":562,"Ġone":563,"Ġhave":564,"Ġsc":565,"pl":566,"ally":567,"own":568,"ile":569,"Ġrec":570,"Ġ18":571,"ted":572,".@":573,"Ġ@.@":574,"Ġtwo":575,"ition":576,"ugh":577,"iz":578,"ree":579,"ence":580,"ts":581,"uring":582,"port":583,"Ġbeen":584,"Ġpart":585,"Ġbec":586,"ice":587,"Ġhas":588,"ĠAl":589,"Ġag":590,"Ġapp":591,"Ġ201":592,"ough":593,",@":594,"Ġ@,@":595,"Ġj":596,"Ġen":597,"Ġdis":598,"lud":599,"ke":600,"Ġover":601,"Ġser":602,"Ġthis":603,"ory":604,"ely":605,"Ġyear":606,"ations":607,"ember":608,"ren":609,"ction":610,"ound":611,"ach":612,"Ġoff":613,"Ġafter":614,"ric":615,"Ġup":616,"land":617,"Ġplay":618,"Ġdes":619,"ace":620,"ĠIt":621,"ark":622,"over":623,"ance":624,"Ġout":625,"Ġthey":626,"Ġman":627,"ade":628,"Ġte":629,"act":630,"Ġother":631,"ib":632,"man":633,"ult":634,"Ġim":635,"ĠY":636,"ph":637,"ress":638,"Ġinclud":639,"ced":640,"ens":641,"urn":642,"wn":643,"Ġwould":644,"ind":645,"Ġtime":646,"one":647,"Ġpre":648,"Ġinto":649,"vel":650,"ĠOn":651,"ĠUn":652,"ward":653,"we":654,"Ġwe":655,"Ġhim":656,"ite":657,"oin":658,"ates":659,"Ġ6":660,"Ġshe":661,"les":662,"Ġev":663,"ilm":664,"Ġatt":665,"ased":666,"Ġne":667,"ited":668,"able":669,"end":670,"ied":671,"ase":672,"amp":673,"Ġcomm":674,"ors":675,"Ġinter":676,"are":677,"rough":678,"oy":679,"ons":680,"ount":681,"ep":682,"form":683,"Ġall":684,"ose":685,"ood":686,"ang":687,"Ġmore":688,"ces":689,"Ġwork":690,"Ġ7":691,"ail":692,"old":693,"aw":694,"ered":695,"ings":696,"ve":697,"ild":698,"ĠAn":699,"Ġnew":700,"Ġsec":701,"Ġbet":702,"Ġwhen":703,"inal":704,"Ġfe":705,"Ġfilm":706,"ick":707,"vi":708,"ents":709,"ĠSe":710,"way":711,"att":712,"ft":713,"iss":714,"aus":715,"fer":716,"Ġ8":717,"gan":718,"ĠMar":719,"reat":720,"rib":721,"Ġcons":722,"ĠAr":723,"round":724,"ake":725,"Ġrem":726,"ved":727,"Ġtr":728,"Ġdec":729,"ason":730,"ans":731,"Ġduring":732,"Ġund":733,"orth":734,"ubl":735,"Ġ9":736,"hip":737,"Ġagain":738,"ĠAs":739,"Ġmost":740,"Ġgame":741,"oth":742,"Ġthem":743,"Ġ199":744,"Ġonly":745,"Ġpr":746,"ath":747,"ween":748,"ix":749,"Ġear":750,"ollow":751,"Ġthan":752,"ob":753,"rop":754,"Ġsup":755,"ational":756,"fore":757,"ĠNew":758,"Ġabout":759,"Ġprodu":760,"ug":761,"Ġcent":762,"tern":763,"Ġkn":764,"Ġret":765,"ey":766,"Ġchar":767,"Ġsong":768,"Ġcan":769,"outh":770,"Ġbetween":771,"Ġlater":772,"orn":773,"Ġrele":774,"Ġunder":775,"ict":776,"Ġthree":777,"hn":778,"ton":779,"Ġcol":780,"ron":781,"Ġact":782,"Ġ00":783,"als":784,"Ġqu":785,"Ġthrough":786,"ĠEn":787,"orld":788,"ook":789,"Ġnum":790,"Ġso":791,"Ġme":792,"Ġacc":793,"Ġrel":794,"Ġwhile":795,"Ġra":796,"Ġend":797,"meric":798,"ĠLe":799,"lect":800,"ĠAmeric":801,"Ġfl":802,"ters":803,"ock":804,"Ġpos":805,"ral":806,"Ġsub":807,"ever":808,"ular":809,"Ġass":810,"ating":811,"Ġwhere":812,"Ġver":813,"Ġday":814,"ck":815,"Ġreg":816,"Ġsecond":817,"ener":818,"aid":819,"Ġbu":820,"ĠCom":821,"Ġmade":822,"ames":823,"ision":824,"ived":825,"ĠRe":826,"Ġpe":827,"hes":828,"Ġrecord":829,"son":830,"Ġdef":831,"bum":832,"Ġfour":833,"Ġgro":834,"Ġfollow":835,"Ġseason":836,"Ġ000":837,"Ġep":838,"Ġform":839,"Ġsome":840,"Ġsuch":841,"Ġam":842,"ool":843,"ished":844,"Ġmov":845,"Ġbefore":846,"Ġtra":847,"Ġmus":848,"ĠSp":849,"Ġthere":850,"Ġwrit":851,"hen":852,"ics":853,"ĠJo":854,"io":855,"Ġspec":856,"iel":857,"Ġ10":858,"ike":859,"Ġsy":860,"Ġyears":861,"Ġteam":862,"ĠAt":863,"ode":864,"ual":865,"ĠThis":866,"ident":867,"Ġ/":868,"Ġlar":869,"Ġalbum":870,"ĠSh":871,"Ġind":872,"ros":873,"ily":874,"owever":875,"Ġent":876,"ning":877,"Ġused":878,"Ġcall":879,"ank":880,"Ġsur":881,"ific":882,"Ġac":883,"Ġhigh":884,"ury":885,"Ġpubl":886,"Ġbeing":887,"Ġepis":888,"ained":889,"Ġthen":890,"led":891,"ten":892,"velop":893,"aj":894,"Ġdo":895,"Ġloc":896,"Ġexp":897,"ife":898,"ris":899,"Ġ17":900,"Ġagainst":901,"Ġinv":902,"Ġ0":903,"Ġbl":904,"Ġpres":905,"Ġshow":906,"other":907,"Ġnumber":908,"ĠAfter":909,"Ġcharac":910,"ious":911,"Ġsever":912,"Ġadd":913,"Ġco":914,"Ġset":915,"ek":916,"ince":917,"ject":918,"ars":919,"Ġbecame":920,"Ġrece":921,"ĠBrit":922,"ause":923,"Ġlead":924,"Ġperform":925,"Ġno":926,"Ġincluding":927,"Ġsing":928,"ather":929,"ins":930,"ĠâĢĶ":931,"ines":932,"Ġfound":933,"ĠUnited":934,"rans":935,"air":936,"Ġwell":937,"ale":938,"Ġmon":939,"Ġrep":940,"ĠSc":941,"Ġpol":942,"Ġback":943,"Ġboth":944,"ier":945,"Ġcap":946,"Ġ198":947,"Ġseries":948,"Ġ15":949,"Ġ12":950,"ober":951,"ram":952,"ĠCon":953,"ik":954,"ower":955,"Ġship":956,"ement":957,"its":958,"ert":959,"ired":960,"ures":961,"ley":962,"ĠWh":963,"ĠShe":964,"ivers":965,"Ġmain":966,"pen":967,"Ġ194":968,"Ġmin":969,"iet":970,"der":971,"overn":972,"Ġdid":973,"ven":974,"Ġgo":975,"Ġcre":976,"elf":977,"olog":978,"Ġimp":979,"Ġdevelop":980,"Ġmet":981,"az":982,"ities":983,"ĠEng":984,"Ġlong":985,"iver":986,"any":987,"ll":988,"ised":989,"erm":990,"ting":991,"uch":992,"ared":993,"ann":994,"ane":995,"ird":996,"Ġem":997,"ĠJohn":998,"Ġmill":999,"ful":1000,"Ġair":1001,"Ġmat":1002,"Ġepisode":1003,"tend":1004,"irect":1005,"Ġsaid":1006,"Ġstud":1007,"Ġmany":1008,"ute":1009,"Ġbro":1010,"ash":1011,"ative":1012,"Ġdep":1013,"Ġcar":1014,"Ġ16":1015,"Ġcould":1016,"Ġorig":1017,"Ġwar":1018,"Ġcontin":1019,"ĠCl":1020,"Ġseveral":1021,"ĠAmerican":1022,"though":1023,"Ġdif":1024,"ĠInd":1025,"ield":1026,"ah":1027,"Ġinst":1028,"Ġpop":1029,"ouse":1030,"ise":1031,"emb":1032,"Ġknown":1033,"Ġ197":1034,"ty":1035,"ually":1036,"Ġ196":1037,"ĠAust":1038,"Ġ11":1039,"Ġconc":1040,"til":1041,"iam":1042,"ĠWar":1043,"view":1044,"erson":1045,"Ġob":1046,"ued":1047,"ĠGer":1048,"Ġsm":1049,"Ġreturn":1050,"Ġany":1051,"Ġbegan":1052,"ĠZ":1053,"ern":1054,"Ġcomple":1055,"Ġdesign":1056,"ĠDe":1057,"Ġdesc":1058,"Ġsign":1059,"ople":1060,"chool":1061,"ross":1062,"my":1063,"ism":1064,"oot":1065,"Ġest":1066,"Ġtrans":1067,"ccess":1068,"Ġprov":1069,"aking":1070,"Ġfeat":1071,"ĠBl":1072,"ided":1073,"Ġinf":1074,"anc":1075,"Ġrun":1076,"Ġearly":1077,"Ġart":1078,"ized":1079,"Ġdist":1080,"Ġmusic":1081,"Ġown":1082,"Ġnear":1083,"Ġreleased":1084,"Ġuntil":1085,"Ġcalled":1086,"Ġeff":1087,"ĠCol":1088,"imes":1089,"ĠUS":1090,"rid":1091,"ists":1092,"Ġresp":1093,"une":1094,"Ġbel":1095,"enn":1096,"Ġpass":1097,"stem":1098,"ured":1099,"Ġfin":1100,"ially":1101,"ĠMay":1102,"Ġph":1103,"ution":1104,"Ġdown":1105,"Ġdisc":1106,"ments":1107,"Ġcrit":1108,"osed":1109,"xt":1110,"Ġdirect":1111,"Ġgener":1112,"Ġalong":1113,"ium":1114,"Ġins":1115,"Ġmillion":1116,"ger":1117,"ull":1118,"ĠBritish":1119,"ax":1120,"Ġgroup":1121,"Ġoffic":1122,"vent":1123,"ĠGerman":1124,"Ġ13":1125,"Ġfam":1126,"eb":1127,"Ġthese":1128,"ajor":1129,"Ġmod":1130,"Ġmay":1131,"Ġ$":1132,"cept":1133,"ĠAd":1134,"Ġopen":1135,"ange":1136,"Ġmil":1137,"ĠBe":1138,"Ġpoin":1139,"uc":1140,"gg":1141,"Ġland":1142,"Ġsim":1143,"Ġhist":1144,"ĠAug":1145,"Ġgovern":1146,"Ã©":1147,"ĠSept":1148,"Ġsuccess":1149,"ĠSeptember":1150,"ĠAugust":1151,"ets":1152,"ĠAp":1153,"ĠWorld":1154,"ĠStates":1155,"ible":1156,"ink":1157,"erv":1158,"Ġgu":1159,"Ġoper":1160,"Ġcount":1161,"Ġattack":1162,"Ġuse":1163,"Ġsame":1164,"ys":1165,"wards":1166,"Ġdescrib":1167,"Ġpeople":1168,"ĠIs":1169,"ĠFor":1170,"aced":1171,"Ġcharacter":1172,"yp":1173,"amed":1174,"Ġbecause":1175,"ĠAll":1176,"els":1177,"Ġvi":1178,"Ġ14":1179,"Ġlike":1180,"Ġserv":1181,"ĠJu":1182,"ĠFran":1183,"ged":1184,"Ġaround":1185,"Ġstart":1186,"Ġthough":1187,"Ġed":1188,"Ġ195":1189,"ĠPl":1190,"ĠQ":1191,"ner":1192,"Ġwin":1193,"Ġkm":1194,"Ġconst":1195,"ues":1196,"ring":1197,"Ġtook":1198,"Ġocc":1199,"ruct":1200,"aving":1201,"ĠAustral":1202,"Ġbatt":1203,"ĠOct":1204,"Ġann":1205,"Ġsupport":1206,"ove":1207,"ĠNov":1208,"Ġfollowing":1209,"Ġsix":1210,"Ġnorth":1211,"Ġele":1212,"ĠCar":1213,"Ġ193":1214,"ĠHowever":1215,"Ġsystem":1216,"Ġappear":1217,"uss":1218,"Ġfinal":1219,"Ġreceived":1220,"Ġclass":1221,"ined":1222,"ĠOctober":1223,"Ġhead":1224,"ives":1225,"Ġprom":1226,"Ġconsid":1227,"ene":1228,"ants":1229,"rad":1230,"ling":1231,"ility":1232,"ically":1233,"ĠDec":1234,"ĠPro":1235,"Ġ191":1236,"Ġever":1237,"Ġstate":1238,"Ġbuild":1239,"ret":1240,"Ġeach":1241,"anu":1242,"Ġext":1243,"Ġfive":1244,"rist":1245,"Ġaut":1246,"rol":1247,"ĠYork":1248,"Ġcentury":1249,"ina":1250,"Ġvar":1251,"Ġbo":1252,"Ġwill":1253,"Ġarea":1254,"ĠThey":1255,"ately":1256,"Ġsmall":1257,"get":1258,"oss":1259,"Ġpartic":1260,"Ġlife":1261,"ĠNorth":1262,"iving":1263,"ril":1264,"Ġreport":1265,"Ġ]":1266,"ĠMe":1267,"Ġ[":1268,"tle":1269,"ored":1270,"ĠBy":1271,"ĠJune":1272,"ians":1273,"ording":1274,"Ġcity":1275,"gin":1276,"Ġmar":1277,"ped":1278,"ĠKing":1279,"Ġmajor":1280,"Ġweek":1281,"Ġpublic":1282,"ĠJuly":1283,"Ġ%":1284,"ission":1285,"Ġconf":1286,"ĠHar":1287,"Ġband":1288,"ection":1289,"Ġref":1290,"med":1291,"ĠNovember":1292,"inc":1293,"urch":1294,"Ġrest":1295,"ĠComm":1296,"ĠWill":1297,"Ġworld":1298,"ĠPh":1299,"Ġmed":1300,"Ġsince":1301,"esp":1302,"Ġsingle":1303,"raft":1304,"raph":1305,"por":1306,"ĠApril":1307,"ble":1308,"ĠMc":1309,"ains":1310,"ried":1311,"lish":1312,"Ġdet":1313,"ĠMarch":1314,"omet":1315,"Ġjust":1316,"Ġlast":1317,"ected":1318,"ural":1319,"ional":1320,"hest":1321,"ĠEd":1322,"aim":1323,"Ġturn":1324,"ively":1325,"Ġhel":1326,"ilt":1327,"Ġallow":1328,"Ġpo":1329,"ĠCan":1330,"Ġ30":1331,"cl":1332,"ient":1333,"vious":1334,"ĠGe":1335,"Ġleft":1336,"Ġlarge":1337,"Ġline":1338,"ats":1339,"Ġdiffer":1340,"ales":1341,"ĠSouth":1342,"Ġcare":1343,"Ġsouth":1344,"Ġadv":1345,"ĠDuring":1346,"ified":1347,"Ġdr":1348,"Ġstr":1349,"Ġbook":1350,"Ġvers":1351,"empt":1352,"Ġschool":1353,"Ġsl":1354,"ague":1355,"ĠDecember":1356,"Ġthird":1357,"avy":1358,"Ġincre":1359,"Ġ25":1360,"Ġmonth":1361,"Ġdue":1362,"Ġappro":1363,"..":1364,"Ġplayed":1365,"Ġmuch":1366,"Ġevent":1367,"row":1368,"ĠPr":1369,"Ġif":1370,"rote":1371,"Ġanother":1372,"ĠJanu":1373,"Ġ192":1374,"ĠJanuary":1375,"Ġincluded":1376,"Ġwhat":1377,"Ġplace":1378,"Ġbased":1379,"Ġshort":1380,"ne":1381,"ĠII":1382,"ony":1383,"Ġexpl":1384,"Ġgovernment":1385,"Ġperson":1386,"ball":1387,"Ġwrote":1388,"ĠWhen":1389,"Ġtrack":1390,"apan":1391,"Ġcamp":1392,"Ġtit":1393,"Ġold":1394,"ĠEu":1395,"Ġbre":1396,"alf":1397,"Ġname":1398,"Ġdeath":1399,"Ġport":1400,"Ġelect":1401,"ently":1402,"Ġ...":1403,"ple":1404,"rent":1405,"ĠJapan":1406,"ience":1407,"Ġeng":1408,"Ġwon":1409,"by":1410,"ĠOr":1411,"Ġchild":1412,"Ġprot":1413,"Ġlit":1414,"Ġkill":1415,"Ġprog":1416,"oad":1417,"Ġstory":1418,"ideo":1419,"ages":1420,"Ġpower":1421,"ĠBro":1422,"Ġreview":1423,"ĠTe":1424,"ody":1425,"Ġvis":1426,"ital":1427,"Ġhome":1428,"ott":1429,"Ġled":1430,"ps":1431,"Ġdescribed":1432,"eng":1433,"Ġrequ":1434,"oman":1435,"Ġprevious":1436,"Ġfamily":1437,"Ġgun":1438,"rand":1439,"tain":1440,"Ġway":1441,"yl":1442,"Ġnamed":1443,"Ġright":1444,"Ġnow":1445,"ĠMus":1446,"Ġdem":1447,"urther":1448,"iod":1449,"iven":1450,"Ġmen":1451,"ilar":1452,"Ġeven":1453,"Ġmake":1454,"embers":1455,"Ġorgan":1456,"ĠGu":1457,"reen":1458,"ister":1459,"ont":1460,"cy":1461,"iversity":1462,"omin":1463,"Ġattempt":1464,"Ġbest":1465,"itions":1466,"Ġ100":1467,"Ġcour":1468,"ĠÂ":1469,"Ġrepl":1470,"ivision":1471,"Ġopp":1472,"Ġleg":1473,"rench":1474,"Ġgames":1475,"ior":1476,"ached":1477,"Ġterm":1478,"ĠAnd":1479,"Ġcommand":1480,"ival":1481,"Ġhand":1482,"ĠFl":1483,"Ġposs":1484,"mp":1485,"Ġbelie":1486,"Ġdam":1487,"Ġvery":1488,"ox":1489,"ĠHis":1490,"Ġthose":1491,"ĠFeb":1492,"ĠEurop":1493,"Ġpar":1494,"ĠFebru":1495,"ĠFebruary":1496,"sh":1497,"Ġiss":1498,"Ġstill":1499,"Ġtop":1500,"Ġnext":1501,"Ġspecies":1502,"ĠChrist":1503,"Ġeffect":1504,"riend":1505,"Ġview":1506,"ched":1507,"ĠThere":1508,"ĠNational":1509,"oci":1510,"Ġoriginal":1511,"aken":1512,"ĠWe":1513,"ature":1514,"ences":1515,"Ġspe":1516,"lu":1517,"Ġwater":1518,"ness":1519,"Ġaddition":1520,"Ġjoin":1521,"ĠBar":1522,"ĠEurope":1523,"Ġlist":1524,"au":1525,"Ġperiod":1526,"Ġwithin":1527,"alk":1528,"Ġmembers":1529,"Ġmark":1530,"eter":1531,"Ġdeb":1532,"Ġheld":1533,"Ġbuilt":1534,"ĠFrench":1535,"Ġexper":1536,"hor":1537,"af":1538,"ĠAm":1539,"Ġ2010":1540,"Ġrelease":1541,"ĠPar":1542,"Ġlate":1543,"Ġalthough":1544,"Ġformer":1545,"rew":1546,"Ġmatch":1547,"Ġgreat":1548,"augh":1549,"ridge":1550,"ney":1551,"Ġcur":1552,"Ġdest":1553,"Ġsold":1554,"uted":1555,"tended":1556,"Ġvideo":1557,"Ġ21":1558,"ards":1559,"Ġcaus":1560,"ĠWest":1561,"line":1562,"Ġstorm":1563,"Ġcover":1564,"ĠX":1565,"ves":1566,"ech":1567,"Ġinit":1568,"Ġrole":1569,"ropical":1570,"Ġtri":1571,"ĠWilliam":1572,"self":1573,"Ġcame":1574,"Ġestab":1575,"hel":1576,"ĠHer":1577,"Ġdays":1578,"ances":1579,"Ġresult":1580,"Ġmid":1581,"Ġpresent":1582,"na":1583,"lev":1584,"Ġcontrol":1585,"aged":1586,"ption":1587,"oon":1588,"ulation":1589,"Ġstand":1590,"Ġreal":1591,"Ġpolit":1592,"Ġhowever":1593,"ĠMin":1594,"itary":1595,"aster":1596,"ham":1597,"Ġ2008":1598,"Ġprop":1599,"let":1600,"ense":1601,"Ġ2009":1602,"ĠMan":1603,"atic":1604,"ides":1605,"Ġfew":1606,"Ġtown":1607,"Ġ24":1608,"Ġwind":1609,"ĠGeor":1610,"omb":1611,"Ġyou":1612,"ograph":1613,"Ġtw":1614,"Ġside":1615,"Ġsk":1616,"Ġcontinued":1617,"Ġoften":1618,"Ġequ":1619,"Ġpost":1620,"ĠEar":1621,"ays":1622,"Ġlocal":1623,"Ġ2011":1624,"elt":1625,"ĠChar":1626,"ator":1627,"Ġamong":1628,"ĠAir":1629,"Ġsimilar":1630,"ruction":1631,"ead":1632,"ches":1633,"ĠMich":1634,"ract":1635,"Ġhum":1636,"Ġav":1637,"Ġclaim":1638,"estern":1639,"ĠNo":1640,"omen":1641,"ung":1642,"Ġ&":1643,"ĠEngland":1644,"reet":1645,"read":1646,"akes":1647,"Ġdifferent":1648,"side":1649,"ese":1650,"ops":1651,"Ġmy":1652,"Ġdel":1653,"ler":1654,"Ġbeh":1655,"ĠRec":1656,"ology":1657,"par":1658,"Ġtyp":1659,"Ġ22":1660,"Ġfurther":1661,"Ġsent":1662,"esc":1663,"ĠDav":1664,"ots":1665,"ested":1666,"Ġlevel":1667,"urs":1668,"Ġfre":1669,"Ġconsidered":1670,"Ġtake":1671,"Ġlaw":1672,"ery":1673,"ĠEl":1674,"Ġtot":1675,"Ġ2007":1676,"gy":1677,"Ġcareer":1678,"ĠOne":1679,"ront":1680,"Ġproduction":1681,"arm":1682,"me":1683,"Ġhalf":1684,"ices":1685,"ĠPark":1686,"ĠCo":1687,"Ġant":1688,"ĠCity":1689,"Ġhaving":1690,"ampions":1691,"bo":1692,"ĠAcc":1693,"ĠEnglish":1694,"Ġmag":1695,"Ġroad":1696,"Ġeast":1697,"Ġmoved":1698,"Ġdra":1699,"ering":1700,"Ġevery":1701,"Ġwest":1702,"Ġwithout":1703,"ĠAlthough":1704,"rodu":1705,"Ġcr":1706,"ĠCent":1707,"Ġappe":1708,"Ġplan":1709,"Ġplayer":1710,"Ġ2012":1711,"ining":1712,"Ġposition":1713,"Ġcor":1714,"Ġbecome":1715,"Ġarr":1716,"Ġhistory":1717,"Ġversion":1718,"vers":1719,"Ġtro":1720,"ĠCal":1721,"ford":1722,"ĠAng":1723,"ondon":1724,"ones":1725,"Ġcast":1726,"ĠCount":1727,"Ġel":1728,"Ġinflu":1729,"ize":1730,"Ġarm":1731,"Ġ23":1732,"ĠLondon":1733,"Ġhouse":1734,"yle":1735,"Ġsound":1736,"rig":1737,"Ġfore":1738,"Ġcommun":1739,"resent":1740,"irc":1741,"app":1742,"ĠBatt":1743,"Ġgr":1744,"Ġclub":1745,"Ġsugg":1746,"roy":1747,"aul":1748,"atter":1749,"Ġstrong":1750,"Ġinvol":1751,"ai":1752,"Ġwritten":1753,"Ġ190":1754,"aining":1755,"ĠWith":1756,"Ġbas":1757,"Ġstat":1758,"Ġless":1759,"oung":1760,"utes":1761,"Ġannoun":1762,"rest":1763,"Ġfoot":1764,"ĠRiver":1765,"iqu":1766,"ald":1767,"Ġorder":1768,"Ġrefer":1769,"iety":1770,"iment":1771,"ges":1772,"Ġprof":1773,"craft":1774,"ĠCanad":1775,"ae":1776,"Ġaff":1777,"Ġpoint":1778,"sequ":1779,"Ġtem":1780,"Ġgiven":1781,"Ġrad":1782,"Ġlow":1783,"Ġtrad":1784,"Ġhig":1785,"Ġwant":1786,"ĠGener":1787,"ĠUniversity":1788,"ille":1789,"Ġke":1790,"Ġgave":1791,"Ġpat":1792,"uck":1793,"isc":1794,"Ġimport":1795,"ĠPol":1796,"Ġnever":1797,"aff":1798,"ĠWhile":1799,"Ġchang":1800,"Ġdefe":1801,"ories":1802,"Ġsoc":1803,"Ġreturned":1804,"ration":1805,"ĠAb":1806,"Ġvict":1807,"Ġtotal":1808,"Ġfact":1809,"ĠHigh":1810,"Ġgood":1811,"ention":1812,"ĠTr":1813,"Ġcompany":1814,"Ġfire":1815,"sp":1816,"ailed":1817,"Ġcountry":1818,"Ġwent":1819,"ison":1820,"Ġcomb":1821,"cess":1822,"Ġfriend":1823,"ours":1824,"rick":1825,"ĠEx":1826,"Ġcapt":1827,"Ġpublished":1828,"aun":1829,"Ġproduced":1830,"levision":1831,"Ġfind":1832,"aying":1833,"con":1834,"Ġreported":1835,"Ġorigin":1836,"ĠSm":1837,"Ġ2006":1838,"aign":1839,"Ġlost":1840,"Ġstated":1841,"Ġcommon":1842,"Ġprogram":1843,"ington":1844,"Ġlight":1845,"yn":1846,"Ġparticular":1847,"ape":1848,"Ġord":1849,"echn":1850,"Ġadm":1851,"Ġinclude":1852,"ests":1853,"ĠAccording":1854,"Ġlarg":1855,"ably":1856,"urric":1857,"Ġcompet":1858,"Ġer":1859,"used":1860,"Ġrecorded":1861,"ief":1862,"Ġbuilding":1863,"Ġpress":1864,"ĠSte":1865,"Ġneed":1866,"ĠNe":1867,"Ġbus":1868,"Ġproject":1869,"hing":1870,"Ġforces":1871,"ument":1872,"Ġnort":1873,"Ġ27":1874,"Ġships":1875,"Ġshould":1876,"Ġusing":1877,"Ġeight":1878,"Ġ50":1879,"Ġ28":1880,"Ġperformance":1881,"iness":1882,"ĠSw":1883,"Ġservice":1884,"bs":1885,"Ġpopular":1886,"Ġide":1887,"ploy":1888,"ĠThese":1889,"Ġtimes":1890,"osp":1891,"Ġmaking":1892,"Ġten":1893,"Ġaircraft":1894,"Ġhimself":1895,"oyal":1896,"Ġfun":1897,"Ġauthor":1898,"Ġ2013":1899,"Ġfather":1900,"atch":1901,"Ġmilitary":1902,"ĠAustralia":1903,"ĠSec":1904,"Ġanim":1905,"lear":1906,"Ġbattle":1907,"ampionship":1908,"ned":1909,"ĠJack":1910,"ĠAss":1911,"Ġsit":1912,"Ġlim":1913,"Ġsongs":1914,"Ġsomet":1915,"Ġread":1916,"ĠAf":1917,"outher":1918,"Ġcritic":1919,"ensive":1920,"ither":1921,"ords":1922,"Ġdevelopment":1923,"Ġsw":1924,"Ġhow":1925,"Ġgl":1926,"Ġ40":1927,"ĠGeneral":1928,"alth":1929,"eth":1930,"Ġsol":1931,"itive":1932,"eder":1933,"ases":1934,"quad":1935,"Ġ26":1936,"ĠState":1937,"oll":1938,"ĠCor":1939,"outhern":1940,"ĠJames":1941,"Ġcross":1942,"cer":1943,"Ġ189":1944,"amb":1945,"Ġrepresent":1946,"ĠSy":1947,"Ġground":1948,"Ġdestroy":1949,"acy":1950,"Ġstar":1951,"Ġft":1952,"Ġremained":1953,"astern":1954,"Ġste":1955,"ks":1956,"rie":1957,"Ġcharacters":1958,"ĠArmy":1959,"Ġnational":1960,"ĠPres":1961,"Ġget":1962,"ries":1963,"work":1964,"Ġmonths":1965,"Ġsuff":1966,"Ġgen":1967,"ĠBo":1968,"Ġdied":1969,"aur":1970,"Ġter":1971,"ĠGl":1972,"ĠComp":1973,"ublic":1974,"Ġdeveloped":1975,"Ġtitle":1976,"dom":1977,"Ġsum":1978,"Ġchart":1979,"fic":1980,"Ġcampaign":1981,"ream":1982,"urricane":1983,"Ġforce":1984,"ĠLeague":1985,"Ġchildren":1986,"Ġintrodu":1987,"lands":1988,"ency":1989,"Ġpra":1990,"Ġtour":1991,"Ġpromot":1992,"itted":1993,"isted":1994,"ael":1995,"Ġson":1996,"Ġsignific":1997,"Ġred":1998,"Ġacross":1999,"Ġaway":2000,"ression":2001,"hern":2002,"Ġrelations":2003,"Ġobs":2004,"Ġhistor":2005,"Ġfield":2006,"Ġofficial":2007,"ĠDivision":2008,"Ġfav":2009,"Ġfelt":2010,"ole":2011,"lege":2012,"ĠAmerica":2013,"Ġnoted":2014,"Ġfac":2015,"ĠSim":2016,"Ġnight":2017,"alt":2018,"Ġannounced":2019,"most":2020,"Ġreached":2021,"ĠRuss":2022,"Ġintern":2023,"ĠSup":2024,"Ġcreated":2025,"ĠCounty":2026,"Ġareas":2027,"com":2028,"ĠRep":2029,"ĠMon":2030,"Ġtelevision":2031,"Ġcoun":2032,"Ġ2005":2033,"ĠRoad":2034,"ĠJapanese":2035,"Ġstation":2036,"hem":2037,"ressed":2038,"Ġsuccessful":2039,"ĠMad":2040,"Ġrock":2041,"imately":2042,"Ġval":2043,"ĠGr":2044,"ĠReg":2045,"ising":2046,"Ġvarious":2047,"ĠâĢĻ":2048,"Ġbar":2049,"ĠStreet":2050,"Ġpolitical":2051,"Ġseen":2052,"Ġfollowed":2053,"Ġaver":2054,"field":2055,"iber":2056,"iting":2057,"Ġtoo":2058,"Ġ29":2059,"Ġrank":2060,"ett":2061,"ĠEast":2062,"ope":2063,"Ġperformed":2064,"cast":2065,"ĠRober":2066,"Ġcult":2067,"ization":2068,"Ġserved":2069,"Ġ2014":2070,"Ġplayers":2071,"Ġfront":2072,"reg":2073,"Ġrev":2074,"ality":2075,"ĠGeorge":2076,"Ġcond":2077,"Ġfull":2078,"Ġprim":2079,"Ġdecl":2080,"Ġblack":2081,"ination":2082,"elling":2083,"Ġbegin":2084,"duct":2085,"Ġfle":2086,"Ġput":2087,"ĠSer":2088,"Ġcirc":2089,"Ġconv":2090,"Ġearl":2091,"ĠPer":2092,"olution":2093,"ĠTo":2094,"ĠHen":2095,"Ġcost":2096,"abor":2097,"idence":2098,"Ġsee":2099,"Ġprocess":2100,"Ġnon":2101,"Ġdiv":2102,"Ġstyle":2103,"ying":2104,"Ġlook":2105,"ĠPhil":2106,"Ġseven":2107,"Ġvol":2108,"Ġaud":2109,"Ġkilled":2110,"ĠEm":2111,"Ġcy":2112,"Ġhelp":2113,"rict":2114,"Ġlet":2115,"lished":2116,"play":2117,"Ġthroughout":2118,"ĠBill":2119,"Ġtaken":2120,"Ġtropical":2121,"Ġable":2122,"ana":2123,"Ġfight":2124,"Ġdiscover":2125,"Ġagre":2126,"ecut":2127,"ertain":2128,"Ġlittle":2129,"Ġwid":2130,"Ġbecom":2131,"Ġfem":2132,"Ġage":2133,"urg":2134,"Ġsignificant":2135,"ĠSch":2136,"Ġhit":2137,"Ġmeet":2138,"Ġident":2139,"ĠThom":2140,"ways":2141,"irl":2142,"Ġtechn":2143,"Ġspecial":2144,"Ġcop":2145,"oice":2146,"Ġwriting":2147,"Ġstruct":2148,"ĠDavid":2149,"Ġthought":2150,"Ġestablished":2151,"ĠPart":2152,"Ġbroad":2153,"ĠAct":2154,"enced":2155,"ĠMor":2156,"Ġmm":2157,"Ġappeared":2158,"Ġdoes":2159,"Ġcoll":2160,"Ġentire":2161,"ĠAustralian":2162,"aval":2163,"cil":2164,"epend":2165,"Ġyoung":2166,"Ġcoast":2167,"Ġpoints":2168,"Ġ!":2169,"Ġmiles":2170,"ius":2171,"Ġbody":2172,"Ġaward":2173,"less":2174,"Ġimpro":2175,"ĠRich":2176,"Ġroute":2177,"Ġmember":2178,"odes":2179,"ought":2180,"ĠMed":2181,"ground":2182,"ript":2183,"Ġwomen":2184,"Ġactiv":2185,"Ġrange":2186,"ster":2187,"ask":2188,"ĠPe":2189,"ivil":2190,"ĠYou":2191,"Ġcaused":2192,"Ġstarted":2193,"Ġdecided":2194,"iers":2195,"blem":2196,"Ġfeatures":2197,"lected":2198,"day":2199,"ĠAfric":2200,"Ġgeneral":2201,"Ġpain":2202,"ĠQu":2203,"Ġeventually":2204,"ators":2205,"iron":2206,"iec":2207,"int":2208,"umb":2209,"men":2210,"conom":2211,"oph":2212,"ogn":2213,"uk":2214,"den":2215,"ĠRoyal":2216,"Ġrace":2217,"Ġarch":2218,"Ġvot":2219,"here":2220,"itar":2221,"Ġgrow":2222,"Ġmanag":2223,"Ġfeet":2224,"pped":2225,"rison":2226,"Ġtoget":2227,"Ġtogether":2228,"ush":2229,"Ġadded":2230,"ĠHist":2231,"ĠHouse":2232,"Ġtre":2233,"Ġhold":2234,"bert":2235,"Ġcut":2236,"ivid":2237,"Ġ188":2238,"Ġwhite":2239,"Ġonce":2240,"Ġnov":2241,"ample":2242,"ament":2243,"Ġformed":2244,"Ġarg":2245,"Ġlocated":2246,"Ġstri":2247,"reek":2248,"urb":2249,"Ġconn":2250,"Ġmodern":2251,"off":2252,"ĠBlack":2253,"Ġenc":2254,"Ġinstead":2255,"dle":2256,"ĠPort":2257,"head":2258,"rought":2259,"aces":2260,"Ġround":2261,"Ġesc":2262,"Ġ31":2263,"Ġball":2264,"ara":2265,"Ġmix":2266,"emy":2267,"ĠIntern":2268,"Ġimportant":2269,"ee":2270,"Ġpri":2271,"cing":2272,"Ġcrew":2273,"Ġsaw":2274,"Ġaction":2275,"Ġcompleted":2276,"Ġredu":2277,"ĠItal":2278,"Ġplaying":2279,"ects":2280,"ĠIndian":2281,"ids":2282,"oney":2283,"cent":2284,"rated":2285,"ĠOther":2286,"ells":2287,"Ġ2004":2288,"ata":2289,"Ġinsp":2290,"Ġbase":2291,"Ġmater":2292,"Ġpopulation":2293,"ĠMy":2294,"Ġmot":2295,"Ġsurv":2296,"ĠMichael":2297,"Ġvoc":2298,"Ġask":2299,"Ġrather":2300,"Ġoccur":2301,"Ġopened":2302,"Ġstage":2303,"Ġbehind":2304,"Ġothers":2305,"Ġ186":2306,"ray":2307,"Ġfall":2308,"Ġren":2309,"Ġguns":2310,"asing":2311,"ceed":2312,"Ġbrother":2313,"wood":2314,"ements":2315,"igned":2316,"Ġcomment":2317,"lin":2318,"Ġlik":2319,"stit":2320,"Ġborn":2321,"Ġfif":2322,"Ġ2015":2323,"Ġsite":2324,"Ġlive":2325,"Ġworks":2326,"Ġloss":2327,"ĠFrance":2328,"Ġbomb":2329,"Ġworked":2330,"ficult":2331,"Ġheavy":2332,"Ġmiss":2333,"Ġpred":2334,"Ã¡":2335,"ĠSchool":2336,"medi":2337,"rap":2338,"Ġsubsequ":2339,"Ġlack":2340,"Ġparty":2341,"Ġproblem":2342,"nder":2343,"lection":2344,"Ġdifficult":2345,"Ġclose":2346,"ĠWash":2347,"Ġconstruction":2348,"Ġknow":2349,"ĠNor":2350,"ĠSome":2351,"Ġrelationship":2352,"Ġhost":2353,"Ġweeks":2354,"istic":2355,"ĠSan":2356,"Ġoriginally":2357,"Ġsepar":2358,"Ġassoci":2359,"arch":2360,"co":2361,"Ġupon":2362,"Ġpract":2363,"Ġreb":2364,"ĠHenry":2365,"Ġleading":2366,"Ġappoin":2367,"Ġaccom":2368,"Ġvill":2369,"Ġalmost":2370,"Ġmer":2371,"ĠRobert":2372,"orts":2373,"Ġpeak":2374,"ĠAle":2375,"Ġinj":2376,"Ġdamage":2377,"lic":2378,"unk":2379,"Ġscored":2380,"Ġfourth":2381,"osition":2382,"Ġinform":2383,"Ġ2000":2384,"Ġreve":2385,"ĠMusic":2386,"aps":2387,"Ġprovided":2388,"ĠBest":2389,"ming":2390,"Ġcase":2391,"ĠVir":2392,"ĠStar":2393,"Ġgoal":2394,"Ġclos":2395,"ĠBattle":2396,"board":2397,"Ġengine":2398,"Ġcreat":2399,"ĠRed":2400,"Ġaccept":2401,"Ġmi":2402,"Ġinvest":2403,"ica":2404,"oring":2405,"Ġscene":2406,"ellow":2407,"ĠDesp":2408,"Ġhuman":2409,"angu":2410,"ule":2411,"ino":2412,"ological":2413,"Ġbrought":2414,"Ġ500":2415,"Ġfree":2416,"Ġindivid":2417,"Ġ187":2418,"ĠPaul":2419,"Ġfeatured":2420,"ula":2421,"Ġmother":2422,"ĠPresident":2423,"ĠRou":2424,"Ġking":2425,"Ġleast":2426,"ama":2427,"Ġworking":2428,"aut":2429,"Ġallowed":2430,"Ġlaun":2431,"Ġresul":2432,"ĠMil":2433,"Ġaverage":2434,"ĠCap":2435,"Ġtowards":2436,"Ġwanted":2437,"Ġmult":2438,"Ġindust":2439,"Ġtradition":2440,"aves":2441,"Ġregion":2442,"Ġbusiness":2443,"ĠWashington":2444,"ĠHol":2445,"iding":2446,"azine":2447,"ĠAg":2448,"ĠQue":2449,"Ġve":2450,"Ġquick":2451,"Ġtroops":2452,"Ġplaced":2453,"Ġeither":2454,"Ġce":2455,"Ġrespect":2456,"ving":2457,"Ġoffice":2458,"Ġcritics":2459,"ky":2460,"ĠBel":2461,"Ġavail":2462,"Ġhon":2463,"antic":2464,"Ġreach":2465,"ĠÃ":2466,"Ġprofess":2467,"Ġexample":2468,"Ġruns":2469,"Ġmaterial":2470,"Ġeconom":2471,"Ġrecogn":2472,"Ġfar":2473,"ened":2474,"Ġwife":2475,"ze":2476,"go":2477,"earch":2478,"to":2479,"chie":2480,"Ġneg":2481,"Ġestim":2482,"ential":2483,"Ġarmy":2484,"Ġfoc":2485,"right":2486,"ĠDespite":2487,"Ġsex":2488,"Ġ2003":2489,"Ġinterest":2490,"ĠFollow":2491,"ĠCour":2492,"Ġsour":2493,"ength":2494,"Ġgenerally":2495,"Ġmass":2496,"Ġjoined":2497,"Ġdou":2498,"Ġrail":2499,"quadron":2500,"ĠHam":2501,"Ġproper":2502,"ills":2503,"ĠAngel":2504,"uff":2505,"enes":2506,"Ġcurrent":2507,"Ġdev":2508,"ourn":2509,"ĠHall":2510,"ĠCup":2511,"Ġevents":2512,"Ġbelieved":2513,"ĠGame":2514,"itch":2515,"of":2516,"Ġparticip":2517,"Ġ35":2518,"rey":2519,"be":2520,"Ġfig":2521,"ĠFollowing":2522,"ĠKe":2523,"ville":2524,"ĠFirst":2525,"ĠMary":2526,"ĠDr":2527,"Ġz":2528,"Ġvictory":2529,"Ġreplaced":2530,"ĠLou":2531,"ĠGreat":2532,"artment":2533,"Ġdesigned":2534,"Ġmph":2535,"iction":2536,"Ġgrad":2537,"ĠJe":2538,"Ġrul":2539,"itte":2540,"Ġsoon":2541,"Ġnomin":2542,"sc":2543,"Ġisland":2544,"ĠGro":2545,"Ġfund":2546,"xic":2547,"ĠLa":2548,"erous":2549,"oor":2550,"Ġhours":2551,"ĠEuropean":2552,"ĠTwo":2553,"Ġemploy":2554,"Ġpresident":2555,"ĠMal":2556,"Ġroom":2557,"ification":2558,"Ġinvolved":2559,"aled":2560,"uel":2561,"Ġsurf":2562,"val":2563,"aper":2564,"Ġfinished":2565,"merc":2566,"Ġstru":2567,"ĠChampionship":2568,"inn":2569,"inist":2570,"asion":2571,"west":2572,"ĠMart":2573,"inf":2574,"ĠPlay":2575,"Ġbreak":2576,"ĠRoman":2577,"Ġhor":2578,"rain":2579,"aren":2580,"iff":2581,"Ġsaying":2582,"arn":2583,"emor":2584,"Ġcourt":2585,"Ġshot":2586,"Ġthreat":2587,"ĠBer":2588,"Ġscore":2589,"Ġopening":2590,"Ġregular":2591,"ĠDan":2592,"BC":2593,"Ġdesp":2594,"Ġdirector":2595,"Ġlength":2596,"ĠMet":2597,"ĠMac":2598,"ĠDon":2599,"Ġindic":2600,"ades":2601,"leg":2602,"cher":2603,"ĠScott":2604,"Ġconduct":2605,"Ġlargest":2606,"Ġcontrib":2607,"Ġtravel":2608,"Ġhom":2609,"oul":2610,"ki":2611,"Ġpossible":2612,"ecutive":2613,"Ġill":2614,"ude":2615,"now":2616,"Ġminutes":2617,"Ġhighway":2618,"ĠRoute":2619,"Ġsouthern":2620,"ishing":2621,"Ġdro":2622,"ĠCro":2623,"Ġhy":2624,"ĠVal":2625,"icle":2626,"Ġhighest":2627,"Ġremov":2628,"ĠFrom":2629,"Ġearlier":2630,"Ġ2001":2631,"Ġtest":2632,"ĠAtl":2633,"Ġinitially":2634,"ĠSing":2635,"ago":2636,"Ġly":2637,"Ġavailable":2638,"Ġparticularly":2639,"Ġpercent":2640,"ander":2641,"antry":2642,"Ġhard":2643,"ĠWil":2644,"anned":2645,"Ġsequ":2646,"Ġtraining":2647,"ĠRepublic":2648,"Ġforced":2649,"Ġmust":2650,"Ġexist":2651,"ply":2652,"ĠMid":2653,"ipp":2654,"hib":2655,"ĠMag":2656,"ĠKingdom":2657,"ĠCharles":2658,"ĠNavy":2659,"ography":2660,"asy":2661,"Ġpark":2662,"ĠÂ°":2663,"rian":2664,"bor":2665,"ateg":2666,"Ġrespons":2667,"Ġended":2668,"Ġquar":2669,"rac":2670,"ĠMcC":2671,"ĠOff":2672,"Ġturned":2673,"Ġwall":2674,"ĠThomas":2675,"Ġexc":2676,"Ġsocial":2677,"ĠInternational":2678,"uture":2679,"ĠBut":2680,"Ġstudio":2681,"ĠPal":2682,"ems":2683,"iforn":2684,"ĠRes":2685,"rag":2686,"ĠDep":2687,"ios":2688,"Ġchange":2689,"ĠWhite":2690,"Ġlangu":2691,"ĠVirgin":2692,"Ġpraised":2693,"Ġpassed":2694,"Ġsuper":2695,"Ġpriv":2696,"Ġbill":2697,"atural":2698,"Ġpiec":2699,"Ġincreased":2700,"Ġobject":2701,"ĠBrown":2702,"rup":2703,"Ġeduc":2704,"Ġhurricane":2705,"Ġregard":2706,"Ġnorthern":2707,"heast":2708,"Ġ2002":2709,"Ġkeep":2710,"Ġphys":2711,"Ġcentral":2712,"ights":2713,"ĠChurch":2714,"itor":2715,"Ġnovel":2716,"Ġrelig":2717,"ĠCanada":2718,"sel":2719,"Ġspeed":2720,"Ġappearance":2721,"ĠCaliforn":2722,"Ġunits":2723,"Ġpast":2724,"rem":2725,"ership":2726,"ĠRock":2727,"ĠSl":2728,"key":2729,"Ġstop":2730,"Ġchurch":2731,"ĠSen":2732,"ended":2733,"Ġcou":2734,"Ġimmedi":2735,"ĠBay":2736,"uter":2737,"Ġsym":2738,"ston":2739,"ĠMo":2740,"ĠSmith":2741,"ocr":2742,"Ġdisp":2743,"Ġmeas":2744,"Ġordered":2745,"aughter":2746,"ĠMer":2747,"Ġtreat":2748,"ique":2749,"ĠSam":2750,"Ġtaking":2751,"ference":2752,"ĠRichard":2753,"rying":2754,"ittee":2755,"Ġindepend":2756,"Ġlove":2757,"ĠAlex":2758,"Ġsigned":2759,"Ġmove":2760,"ilities":2761,"ĠCalifornia":2762,"Ġachie":2763,"etwork":2764,"Ġbetter":2765,"Ġpers":2766,"ump":2767,"ĠUnion":2768,"itz":2769,"aker":2770,"ĠGod":2771,"Ġap":2772,"ĠGovern":2773,"ecess":2774,"arily":2775,"Ġinn":2776,"Ġwinds":2777,"ĠIsland":2778,"Ġcommerc":2779,"Ġenough":2780,"Ġwat":2781,"Ġpositive":2782,"ears":2783,"nel":2784,"ume":2785,"ĠCourt":2786,"Ġaccording":2787,"Ġhous":2788,"Ġspent":2789,"elled":2790,"Ġgoing":2791,"Ġpot":2792,"Ġabove":2793,"ĠBra":2794,"Ġslow":2795,"anks":2796,"Ġoutside":2797,"Ġfilms":2798,"apt":2799,"ĠTom":2800,"ĠVict":2801,"ĠUp":2802,"ĠCong":2803,"Ġfeel":2804,"Ġtold":2805,"Ġfootball":2806,"ma":2807,"ĠAward":2808,"berg":2809,"quare":2810,"Ġclear":2811,"Ġpreviously":2812,"uation":2813,"Ġquest":2814,"Ġstates":2815,"Ġrecording":2816,"Ġ1990":2817,"Ġmean":2818,"anding":2819,"ĠAssoci":2820,"Ġ60":2821,"ĠAc":2822,"Ġnine":2823,"het":2824,"Ġpur":2825,"usion":2826,"Ġsubject":2827,"ĠArt":2828,"Ġfailed":2829,"atin":2830,"ows":2831,"Ġassist":2832,"Ġcome":2833,"ĠCompany":2834,"Ġrequired":2835,"reng":2836,"osing":2837,"Ġ45":2838,"Ġelements":2839,"Ġprob":2840,"van":2841,"Ġey":2842,"ida":2843,"ĠStud":2844,"Ġcru":2845,"alion":2846,"ĠIndia":2847,"Ġlower":2848,"ĠGermany":2849,"Ġreviews":2850,"Ġinterview":2851,"edy":2852,"Ġphot":2853,"Ġparts":2854,"ĠMark":2855,"ĠPeter":2856,"ĠGold":2857,"Ġitself":2858,"ĠChristian":2859,"Ġsil":2860,"Ġnar":2861,"Ġthink":2862,"nes":2863,"ranch":2864,"ship":2865,"Ġdirected":2866,"Ġabs":2867,"isl":2868,"Ġesp":2869,"Ġflow":2870,"ibility":2871,"Ġdespite":2872,"Ġcred":2873,"amer":2874,"Ġcontract":2875,"Ġ185":2876,"oke":2877,"ĠNY":2878,"ĠThat":2879,"Ġdebut":2880,"ĠTimes":2881,"Ġ?":2882,"ĠÂ£":2883,"ĠPat":2884,"erved":2885,"Ġaccess":2886,"ready":2887,"leb":2888,"ĠCast":2889,"Ġbeginning":2890,"oid":2891,"Ġbi":2892,"Ġgroups":2893,"ĠCollege":2894,"Ġviol":2895,"onna":2896,"ĠHill":2897,"Ġsection":2898,"ĠUK":2899,"ĠSov":2900,"ability":2901,"hester":2902,"Ġwhose":2903,"ĠBr":2904,"asons":2905,"Ġclaimed":2906,"ĠWestern":2907,"Ġinternational":2908,"Ġasked":2909,"Ġlines":2910,"Ġtransfer":2911,"Ġprevent":2912,"ĠDem":2913,"Ġstreng":2914,"Ġscreen":2915,"Ġgive":2916,"airs":2917,"Ġche":2918,"ĠSoviet":2919,"onse":2920,"rief":2921,"Ġunc":2922,"Ġbeg":2923,"Ġkey":2924,"Ġadditional":2925,"Ġfuture":2926,"ĠFilm":2927,"mar":2928,"ĠGrand":2929,"ĠMexic":2930,"Ġleague":2931,"Ġwhom":2932,"ĠFrank":2933,"Ġop":2934,"ĠDo":2935,"Ġgold":2936,"ĠSpan":2937,"Ġpoor":2938,"ĠBen":2939,"ĠAwards":2940,"Ġfort":2941,"lying":2942,"Ġintroduced":2943,"Ġevidence":2944,"Ġdon":2945,"Ġprem":2946,"ites":2947,"onst":2948,"Ġsea":2949,"Ġidea":2950,"ex":2951,"Ġquickly":2952,"Ġcal":2953,"atory":2954,"Ġalready":2955,"ĠSoc":2956,"Ġ32":2957,"Ġcenter":2958,"Ġbridge":2959,"Ġfrequ":2960,"ĠForce":2961,"usp":2962,"ĠMost":2963,"Ġelection":2964,"Ġproduct":2965,"Ġoccup":2966,"eck":2967,"Ġpil":2968,"Ġexcept":2969,"ĠCoun":2970,"back":2971,"Ġ1970":2972,"unt":2973,"Ġdeal":2974,"irth":2975,"eum":2976,"ecially":2977,"Ġpen":2978,"Ġusually":2979,"Ġmusical":2980,"Ġ1980":2981,"Ġemb":2982,"Ġwestern":2983,"Ġarrived":2984,"aring":2985,"ĠRob":2986,"Ġblock":2987,"eal":2988,"Ġradio":2989,"ĠBritain":2990,"Ġcivil":2991,"liam":2992,"Ġcycl":2993,"ergy":2994,"ully":2995,"ĠOver":2996,"Ġfemale":2997,"Ġsometimes":2998,"ĠDay":2999,"Ġstudy":3000,"Ġfood":3001,"Ġresponse":3002,"Ġdecision":3003,"Ġmoney":3004,"ĠPac":3005,"Ġmagazine":3006,"Ġespecially":3007,"ĠHot":3008,"Ġissue":3009,"ĠLater":3010,"asc":3011,"liament":3012,"ĠVictor":3013,"ĠIm":3014,"Ġlab":3015,"Ġsurface":3016,"Ġliter":3017,"gen":3018,"rack":3019,"Ġ-":3020,"Ġflood":3021,"Ġmight":3022,"aint":3023,"ĠChic":3024,"Ġenv":3025,"ĠTra":3026,"Ġguitar":3027,"Ġcarried":3028,"ĠBur":3029,"Ġshows":3030,"Ġcommunity":3031,"ena":3032,"Ġconstruct":3033,"iter":3034,"Ġestimated":3035,"Ġarran":3036,"Ġremain":3037,"aries":3038,"ĠMill":3039,"Ġ1999":3040,"Ġremaining":3041,"Ġeastern":3042,"Ġminor":3043,"ha":3044,"Ġdefeated":3045,"Ġdeterm":3046,"ĠRh":3047,"inent":3048,"ession":3049,"ĠVirginia":3050,"ĠEarly":3051,"Ġapprox":3052,"igan":3053,"Ġlarger":3054,"raw":3055,"ulf":3056,"Ġbecoming":3057,"Ġrap":3058,"Ġwood":3059,"Ġcomplete":3060,"ĠMount":3061,"Ġ36":3062,"rab":3063,"ror":3064,"Ġpolice":3065,"Ġsuggested":3066,"porary":3067,"Ġmedia":3068,"Ġpressure":3069,"Ġentered":3070,"Ġshoot":3071,"Ġ80":3072,"Ġteams":3073,"rics":3074,"ĠLos":3075,"ĠJust":3076,"Ġcommercial":3077,"Ġanal":3078,"ĠInf":3079,"Ġdoc":3080,"Ġlatter":3081,"ands":3082,"NA":3083,"Ġmarket":3084,"erve":3085,"Ġlo":3086,"Ġconsider":3087,"Ġstudents":3088,"ises":3089,"Ġsurround":3090,"Ġinvestig":3091,"Ġbrief":3092,"Ġconcern":3093,"Ġpersonal":3094,"ĠSecond":3095,"inct":3096,"Ġbur":3097,"ĠIf":3098,"ĠTex":3099,"Ġcertain":3100,"Ġprison":3101,"Ġacqu":3102,"Ġdiscuss":3103,"ĠFle":3104,"ĠJackson":3105,"Ġeffects":3106,"Ġcomplet":3107,"Ġhop":3108,"Ġappointed":3109,"alled":3110,"Ġder":3111,"Ġsummer":3112,"Ġepisodes":3113,"ĠCont":3114,"Ġprior":3115,"ederal":3116,"incip":3117,"ĠFlor":3118,"Ġsat":3119,"Ġtar":3120,"change":3121,"Ġemer":3122,"Ġstaff":3123,"enth":3124,"lymp":3125,"Ġsize":3126,"ĠLouis":3127,"ores":3128,"Ġchanges":3129,"ulated":3130,"Ġcommission":3131,"sy":3132,"omm":3133,"tt":3134,"imate":3135,"Ġwinning":3136,"Ġlimited":3137,"Ġscenes":3138,"ĠOlymp":3139,"Ġriver":3140,"Ġfleet":3141,"Ġleaving":3142,"Ġdestroyed":3143,"iser":3144,"Ġdeg":3145,"Ġdraw":3146,"Ġpay":3147,"II":3148,"ĠClub":3149,"Ġden":3150,"Ġrid":3151,"lo":3152,"que":3153,"ĠSpanish":3154,"Ġ75":3155,"Ġself":3156,"ga":3157,"su":3158,"Ġrights":3159,"ournal":3160,"Ġprovide":3161,"Ġwriter":3162,"ires":3163,"rigade":3164,"Ġpolic":3165,"sen":3166,"Ġtype":3167,"idents":3168,"Ġfail":3169,"ari":3170,"ension":3171,"Ġdate":3172,"Ġtrib":3173,"Ġterrit":3174,"oms":3175,"ĠKh":3176,"Ġgirl":3177,"Ġproposed":3178,"rd":3179,"Ġinfluence":3180,"ties":3181,"ĠGreen":3182,"ĠParty":3183,"Ġoverall":3184,"Ġtax":3185,"Ġ184":3186,"Ġkil":3187,"Ġtransport":3188,"Ġ1960":3189,"Ġstructure":3190,"ĠTer":3191,"Ġcontro":3192,"Ġequip":3193,"ĠDu":3194,"Ġ300":3195,"Ġdivision":3196,"Ġscript":3197,"Ġbr":3198,"iral":3199,"inese":3200,"ÃŃ":3201,"ĠAssociation":3202,"Ġagreed":3203,"Ġanti":3204,"Ġintended":3205,"ĠPri":3206,"Ġjud":3207,"Ġbow":3208,"ĠEdward":3209,"Ġrunning":3210,"ift":3211,"ending":3212,"icles":3213,"ĠChicago":3214,"Ġdaughter":3215,"Ġbig":3216,"Ġbroadcast":3217,"Ġpurch":3218,"Ġnearly":3219,"Ġsupported":3220,"ĠMany":3221,"atives":3222,"AF":3223,"ĠAdm":3224,"Ġdeep":3225,"Ġdi":3226,"Ġresearch":3227,"Ġwide":3228,"imum":3229,"Ġestablish":3230,"ĠRo":3231,"Ġhelped":3232,"Ġmarried":3233,"Ġ1998":3234,"Ġmovement":3235,"ĠChinese":3236,"Ġawarded":3237,"Ġmultip":3238,"ĠSong":3239,"ĠIr":3240,"ĠCouncil":3241,"ili":3242,"ĠOper":3243,"iles":3244,"atively":3245,"acing":3246,"irm":3247,"Ġcreate":3248,"Ġfavor":3249,"Ġintens":3250,"Ġdiss":3251,"Ġbird":3252,"ĠSal":3253,"ĠEnter":3254,"Ġdark":3255,"Ġsusp":3256,"pris":3257,"omer":3258,"ny":3259,"teen":3260,"Ġstars":3261,"Ã¶":3262,"che":3263,"Ġlonger":3264,"Ġlanguage":3265,"Ġhigher":3266,"Ġcat":3267,"ĠEv":3268,"Ġplanned":3269,"mon":3270,"Ġcompared":3271,"Ġcaptured":3272,"Ġincreasing":3273,"Ġfans":3274,"Ġconclud":3275,"Ġcourse":3276,"uz":3277,"Ġchanged":3278,"ĠServ":3279,"ĠSuper":3280,"ĠEmp":3281,"ĠJohnson":3282,"Ġ33":3283,"ounds":3284,"Ġexperience":3285,"Ġapproximately":3286,"Ġrelated":3287,"selves":3288,"Ġdone":3289,"Ġfeature":3290,"Ġfifth":3291,"Ġliving":3292,"enty":3293,"ĠKore":3294,"Ġthemselves":3295,"abit":3296,"ĠHistory":3297,"Ġproducer":3298,"bers":3299,"itt":3300,"Ġ70":3301,"tained":3302,"arent":3303,"Ġtemper":3304,"Ġspace":3305,"Ġtracks":3306,"Ġmostly":3307,"ss":3308,"ĠPacific":3309,"isions":3310,"Ġwithd":3311,"ĠInter":3312,"ĠBack":3313,"uth":3314,"anced":3315,"olic":3316,"ĠBillboard":3317,"ij":3318,"Ġthus":3319,"ĠApp":3320,"ĠBet":3321,"ĠNot":3322,"can":3323,"Ġwoman":3324,"Ġdead":3325,"umn":3326,"ĠMont":3327,"Ġoperations":3328,"Ġimm":3329,"Ġremains":3330,"Ġsyn":3331,"Ġbring":3332,"Ġquarter":3333,"thing":3334,"Ġour":3335,"Ġnatural":3336,"Ġwhether":3337,"imin":3338,"vin":3339,"Ġult":3340,"Ã¼":3341,"oint":3342,"Ġconcept":3343,"Ġweap":3344,"Ġdram":3345,"ĠFinal":3346,"ĠScot":3347,"anded":3348,"Ġprobably":3349,"Ġsoldiers":3350,"Ġran":3351,"Ġcopies":3352,"rast":3353,"ĠSun":3354,"bour":3355,"Ġbuildings":3356,"Ġleader":3357,"Ġvoice":3358,"Ġ1997":3359,"Ġface":3360,"Ġboy":3361,"Ġextended":3362,"ĠSince":3363,"Ġlyrics":3364,"Ġforward":3365,"Ġdepart":3366,"ĠKn":3367,"Ġcomplex":3368,"Ġboard":3369,"ĠAtlantic":3370,"Ġreact":3371,"iring":3372,"Ġbattles":3373,"vey":3374,"Ġissued":3375,"Ġheav":3376,"Ġchall":3377,"riage":3378,"ging":3379,"Ġreally":3380,"Ġcountries":3381,"ospital":3382,"Ġ37":3383,"rate":3384,"Ġsuffered":3385,"ĠLake":3386,"ĠCongress":3387,"Ġcm":3388,"ĠLove":3389,"ĠFort":3390,"ĠFranc":3391,"Ġgoals":3392,"ĠFlorida":3393,"urt":3394,"ĠSever":3395,"Ġincludes":3396,"Ġimmediately":3397,"Ġmeth":3398,"ĠBoth":3399,"Ġattend":3400,"ĠBig":3401,"hood":3402,"Ġbreed":3403,"Ġcapital":3404,"Ġmanager":3405,"Ġmixed":3406,"Ġprivate":3407,"iant":3408,"ĠJim":3409,"ĠJew":3410,"Ġofficers":3411,"Ġlikely":3412,"ĠOld":3413,"Ġcann":3414,"Ġdistrib":3415,"hold":3416,"ĠAnt":3417,"ien":3418,"Ġmach":3419,"ĠQueen":3420,"de":3421,"bury":3422,"Ġremoved":3423,"ĠTexas":3424,"Ġplant":3425,"Ġinitial":3426,"Ġceleb":3427,"ĠSea":3428,"Ġincrease":3429,"venue":3430,"ĠTown":3431,"Ġhealth":3432,"Ġsubsequently":3433,"ĠDist":3434,"Ġleave":3435,"Ġplans":3436,"ria":3437,"Ġalways":3438,"Ġfocus":3439,"Ġcoin":3440,"ĠLaw":3441,"Ġnetwork":3442,"ections":3443,"Ġservices":3444,"Ġmount":3445,"Ġvia":3446,"Ġstatus":3447,"Ġcompan":3448,"ĠTrans":3449,"ĠTor":3450,"rial":3451,"ĠPet":3452,"ĠChina":3453,"Ġvisit":3454,"Ġlocation":3455,"ĠMr":3456,"order":3457,"ams":3458,"ĠAnother":3459,"iation":3460,"Ġflag":3461,"Ġproblems":3462,"ĠLord":3463,"ĠCamp":3464,"ĠHow":3465,"ĠEarth":3466,"Ġoffered":3467,"Ġinstr":3468,"well":3469,"ously":3470,"aily":3471,"Ġmodel":3472,"Ġterms":3473,"Ġnorm":3474,"etic":3475,"Ġmur":3476,"ĠConst":3477,"Ġcolon":3478,"Ġapproach":3479,"Ġsomething":3480,"Ġvillage":3481,"Ġadminist":3482,"Ġtons":3483,"Ġfell":3484,"ounted":3485,"ĠWood":3486,"wer":3487,"ĠBoy":3488,"ctor":3489,"ĠOl":3490,"Ġtor":3491,"ironment":3492,"Ġsch":3493,"Ġmajority":3494,"ĠTur":3495,"Ġprofessional":3496,"orning":3497,"Ġcounter":3498,"Ġ183":3499,"ĠCanadian":3500,"ĠIts":3501,"adium":3502,"ĠRail":3503,"Ã³":3504,"Ġgot":3505,"ibr":3506,"ĠAfrica":3507,"Ġcause":3508,"ĠMur":3509,"Ġconsist":3510,"burg":3511,"aches":3512,"uries":3513,"Ġinters":3514,"Ġdamaged":3515,"Ġmeeting":3516,"ĠGre":3517,"Ġjob":3518,"Ġappears":3519,"Ġadop":3520,"Ġminute":3521,"Ġranked":3522,"olk":3523,"Ġlay":3524,"ĠCenter":3525,"uf":3526,"Ġindividual":3527,"oes":3528,"Ġcomposed":3529,"cean":3530,"Ġrevealed":3531,"ĠSquadron":3532,"ĠHighway":3533,"ify":3534,"Ġang":3535,"ste":3536,"Ġflight":3537,"Ġattacks":3538,"ĠRussian":3539,"itect":3540,"Ġ90":3541,"Ġplot":3542,"Ġdiscovered":3543,"Ġraised":3544,"lor":3545,"reak":3546,"umed":3547,"ĠRad":3548,"ĠMel":3549,"Ġfinanc":3550,"Ġrespectively":3551,"Ġmakes":3552,"pan":3553,"ĠKent":3554,"ĠCarol":3555,"ĠMartin":3556,"ĠCentral":3557,"ĠSir":3558,"Ġnumerous":3559,"ĠIII":3560,"Ġ1995":3561,"Ġassociated":3562,"Ġaltern":3563,"gar":3564,"Ġtakes":3565,"ĠAngeles":3566,"Ġdomin":3567,"Ġneeded":3568,"Ġinspired":3569,"ĠBow":3570,"Ġanc":3571,"Ġlived":3572,"Ġ34":3573,"oe":3574,"ault":3575,"Ġgrand":3576,"Ġlaunched":3577,"Ġyet":3578,"ription":3579,"Ġcand":3580,"Ġnature":3581,"Ġpow":3582,"Ġamb":3583,"Ġdig":3584,"Ġcoach":3585,"Ġoccurred":3586,"Ġcontains":3587,"ĠDV":3588,"Ġveh":3589,"estival":3590,"Ġbene":3591,"Ġshown":3592,"Ġattempted":3593,"uals":3594,"Ġattacked":3595,"ĠDes":3596,"uments":3597,"Ġmoving":3598,"Ġconditions":3599,"Ġupper":3600,"Ġhour":3601,"ĠTV":3602,"ka":3603,"iest":3604,"down":3605,"imb":3606,"ken":3607,"Ġsales":3608,"Ġgra":3609,"ective":3610,"Ġ38":3611,"ĠGroup":3612,"ĠMiss":3613,"joy":3614,"ĠYear":3615,"Ġcollect":3616,"Ġ2016":3617,"ĠDel":3618,"aught":3619,"ĠTour":3620,"Ġ1996":3621,"orce":3622,"Ġissues":3623,"Ġbirth":3624,"Ġ1950":3625,"ĠRev":3626,"Ġwhole":3627,"Ġsal":3628,"izing":3629,"Ġi":3630,"Ġexam":3631,"Ġcer":3632,"Ġinformation":3633,"Ġyards":3634,"Ġfarm":3635,"Ġslight":3636,"ĠEmpire":3637,"ĠOut":3638,"Ġbox":3639,"urity":3640,"Ġmom":3641,"win":3642,"vert":3643,"Ġreferred":3644,"uing":3645,"Ġcritical":3646,"oly":3647,"Ġincor":3648,"reme":3649,"ĠUnder":3650,"ĠPenn":3651,"ĠGar":3652,"Ġnumbers":3653,"Ġfinally":3654,"Ġsmaller":3655,"Ġelected":3656,"Ġselected":3657,"Ġdefeat":3658,"Ġresulted":3659,"Ġsen":3660,"Ġscient":3661,"Ġstay":3662,"Ġbad":3663,"Ġgrant":3664,"Ġqual":3665,"Ġactive":3666,"Ġprincip":3667,"Ġsinger":3668,"kin":3669,"Ġstandard":3670,"Ġsecret":3671,"Ġpit":3672,"itation":3673,"ĠItalian":3674,"uated":3675,"Ġmission":3676,"Ġindustry":3677,"Ġ1994":3678,"enant":3679,"Ġlargely":3680,"Ġens":3681,"Ġoperation":3682,"Ġsem":3683,"andon":3684,"ĠJose":3685,"Ġprec":3686,"Ġlink":3687,"ortun":3688,"onic":3689,"oura":3690,"Ġassigned":3691,"use":3692,"Ġsaf":3693,"Ġlegisl":3694,"Ġearned":3695,"Ġthr":3696,"Ġcommented":3697,"itude":3698,"Ġmale":3699,"Ġexpected":3700,"ãĥ":3701,"ĠDVD":3702,"ĠCorps":3703,"iled":3704,"ĠDis":3705,"Ġroy":3706,"Ġaudience":3707,"Ġlisted":3708,"Ġsuggest":3709,"Ġgre":3710,"oud":3711,"ĠCrit":3712,"ĠArm":3713,"Ġcovered":3714,"Ġpurp":3715,"Ġunable":3716,"irection":3717,"Ġsched":3718,"Ġheart":3719,"Ġtraditional":3720,"ĠCr":3721,"Ġeducation":3722,"gr":3723,"Ġtrade":3724,"Ġartist":3725,"Ġnewsp":3726,"ya":3727,"Ġdouble":3728,"Ġfriends":3729,"Ġclosed":3730,"ĠViet":3731,"Ġunderst":3732,"Ġrefused":3733,"agon":3734,"Ġaw":3735,"Ġrecover":3736,"Ġattention":3737,"ounts":3738,"Ġmethod":3739,"Ġprimary":3740,"ighter":3741,"Ġsister":3742,"ogue":3743,"Ġkind":3744,"Ġtalk":3745,"ĠMichigan":3746,"ĠPre":3747,"tered":3748,"Ġreason":3749,"ffic":3750,"Ġofficer":3751,"Ġplat":3752,"Ġbelow":3753,"Ġcontem":3754,"hips":3755,"Ġ1940":3756,"ĠWales":3757,"Ġenjoy":3758,"Ġability":3759,"Ġdepression":3760,"Ġmeant":3761,"ĠMass":3762,"Ġperformances":3763,"Ġdeclared":3764,"oo":3765,"Ġwalk":3766,"ĠNort":3767,"Ġ49":3768,"Ġblood":3769,"isher":3770,"ĠMore":3771,"Ġgiving":3772,"ĠCath":3773,"Ġletter":3774,"Ġcompl":3775,"Ġword":3776,"undred":3777,"ples":3778,"Ġ180":3779,"Ġfighting":3780,"Ġmiddle":3781,"ĠCle":3782,"Ġcommander":3783,"Ġreligious":3784,"Ġbooks":3785,"Ġtheat":3786,"Ġmax":3787,"Ġhot":3788,"Ġsett":3789,"Ġrate":3790,"ĠOx":3791,"ĠArch":3792,"ĠStep":3793,"ĠLong":3794,"Ġrecords":3795,"ils":3796,"Ġmatches":3797,"Ġconstit":3798,"ĠAcad":3799,"Ġnames":3800,"ona":3801,"aped":3802,"ĠBec":3803,"ĠTest":3804,"ĠDemocr":3805,"Ġproduce":3806,"Ġquestion":3807,"ĠFer":3808,"ĠCare":3809,"antasy":3810,"Ġcompetition":3811,"utch":3812,"Ġcentre":3813,"Ġserious":3814,"Ġunit":3815,"ux":3816,"ĠTeam":3817,"odies":3818,"Ġdisapp":3819,"Ġtouch":3820,"Ġvocals":3821,"ims":3822,"ĠMinister":3823,"irt":3824,"ĠSeveral":3825,"iences":3826,"Ġmention":3827,"ĠZeal":3828,"osh":3829,"ounded":3830,"Ġ1992":3831,"Ġri":3832,"ĠMajor":3833,"ector":3834,"ĠCons":3835,"Ġ41":3836,"Ġaccount":3837,"Ġdocument":3838,"Ġabandon":3839,"ĠWal":3840,"road":3841,"icted":3842,"Ġrapid":3843,"Ġenergy":3844,"Ġnecess":3845,"ares":3846,"Ġmor":3847,"quar":3848,"Ġkilomet":3849,"ĠKenn":3850,"ervation":3851,"echan":3852,"ĠFore":3853,"Ġdut":3854,"Ġconstructed":3855,"ening":3856,"Ġtheme":3857,"Ġris":3858,"rug":3859,"oses":3860,"rier":3861,"ĠFox":3862,"ĠSum":3863,"ette":3864,"ĠTime":3865,"Ġroyal":3866,"Ġpick":3867,"ishop":3868,"Ġstra":3869,"Ġnearby":3870,"Ġhighly":3871,"Ġseparate":3872,"ĠZealand":3873,"yr":3874,"ĠEr":3875,"Ġcontinue":3876,"vention":3877,"Ġprep":3878,"ĠSo":3879,"Ġchief":3880,"Ġdrum":3881,"ails":3882,"Ġeffort":3883,"Ġcas":3884,"Ġpresented":3885,"edic":3886,"ĠHaw":3887,"Ġtur":3888,"ĠSar":3889,"Ġcombat":3890,"ĠMexico":3891,"oper":3892,"Ġpositions":3893,"ĠAfrican":3894,"Ġreduced":3895,"Ġannual":3896,"ĠBu":3897,"ether":3898,"Ġ400":3899,"ibly":3900,"Ġcontrovers":3901,"ĠChris":3902,"ĠMatt":3903,"Ġdirectly":3904,"ieut":3905,"ĠMa":3906,"ĠFour":3907,"Ġ1930":3908,"Ġlevels":3909,"cel":3910,"Ġmeans":3911,"Ġcle":3912,"Ġneigh":3913,"ĠWall":3914,"Ġnotes":3915,"Ġattended":3916,"Ġsevent":3917,"Ġpractice":3918,"Ġtried":3919,"shire":3920,"Ġcompos":3921,"Ġforest":3922,"uit":3923,"emorial":3924,"Ġ55":3925,"Ġfast":3926,"Ġhar":3927,"Ġnuc":3928,"Ġedition":3929,"Ġtrain":3930,"ĠLit":3931,"ĠBrad":3932,"ĠDar":3933,"acher":3934,"ado":3935,"ĠChart":3936,"ĠTre":3937,"ĠBob":3938,"arents":3939,"Ġtwenty":3940,"vement":3941,"Ġmetal":3942,"Ġ1993":3943,"ĠMadonna":3944,"Ġaccepted":3945,"osen":3946,"Ġwatch":3947,"Ġstating":3948,"Ġ1991":3949,"Ġmovie":3950,"Ġarchitect":3951,"Ġtext":3952,"rical":3953,"ĠHel":3954,"Ġrepe":3955,"Ġcandid":3956,"isation":3957,"track":3958,"Ġconcert":3959,"ĠScotland":3960,"Ġadvance":3961,"stitute":3962,"Ġ179":3963,"Ġpair":3964,"ĠJones":3965,"Ġportray":3966,"Ġdirection":3967,"Ġfr":3968,"irmed":3969,"house":3970,"ersey":3971,"Äĩ":3972,"Ġseem":3973,"Ġdism":3974,"ĠTheir":3975,"Ġschools":3976,"Ġlegal":3977,"ĠAnn":3978,"ani":3979,"Ġreject":3980,"eway":3981,"lict":3982,"inem":3983,"ih":3984,"wide":3985,"Ġasp":3986,"ĠManc":3987,"icip":3988,"fall":3989,"Ġge":3990,"Ġhorse":3991,"ĠCross":3992,"Ġthick":3993,"Ġmarriage":3994,"illery":3995,"aging":3996,"Ġrecomm":3997,"Ġ+":3998,"ĠGreek":3999,"ĠDepartment":4000,"light":4001,"Ġefforts":4002,"Ġmanaged":4003,"Ġcollege":4004,"ĠDou":4005,"awn":4006,"Ġ39":4007,"Ġpurs":4008,"like":4009,"icient":4010,"ĠGo":4011,"Ġwing":4012,"utions":4013,"Ġresulting":4014,"hy":4015,"Ġending":4016,"irit":4017,"ieutenant":4018,"ĠThree":4019,"band":4020,"Ġshowed":4021,"Ġdropped":4022,"Ġresponsible":4023,"ĠMic":4024,"ĠPost":4025,"MS":4026,"ĠInfantry":4027,"Ġ182":4028,"Ġnation":4029,"Ġdisplay":4030,"Ġinside":4031,"illed":4032,"ĠFoot":4033,"ita":4034,"Ġcases":4035,"Ġkept":4036,"Ġcust":4037,"Ġenvironment":4038,"ĠLad":4039,"ĠBost":4040,"Ġ48":4041,"Ġculture":4042,"Ġrare":4043,"Ġmeaning":4044,"Ġrat":4045,"ĠLeg":4046,"Ġcyclone":4047,"olf":4048,"Ġdom":4049,"Ġincorpor":4050,"Ġbegins":4051,"Ġ42":4052,"Ġvariety":4053,"ceeded":4054,"Ġmorning":4055,"Ġsubst":4056,"pe":4057,"Ġcerem":4058,"pass":4059,"Ġhouses":4060,"ĠStone":4061,"Ġforms":4062,"Ġchampionship":4063,"ĠService":4064,"Ġwords":4065,"rane":4066,"Ġarrest":4067,"Ġschol":4068,"ĠCreek":4069,"Ġyard":4070,"peror":4071,"ĠWilliams":4072,"ĠHung":4073,"Ġoil":4074,"ĠRecords":4075,"ĠSecret":4076,"Ġmarked":4077,"Ġinches":4078,"cend":4079,"Ġcontinues":4080,"Ġspl":4081,"ini":4082,"Ġscience":4083,"ĠBC":4084,"Ġperm":4085,"Ġ181":4086,"Ġsymb":4087,"gl":4088,"ĠNews":4089,"gypt":4090,"ecting":4091,"Åį":4092,"ols":4093,"Ġbank":4094,"ĠHal":4095,"ĠStan":4096,"ĠParliament":4097,"Ġuses":4098,"Ġeconomic":4099,"ĠSur":4100,"writ":4101,"cle":4102,"Ġsource":4103,"ĠGames":4104,"thel":4105,"bed":4106,"ĠFin":4107,"ras":4108,"ĠTro":4109,"Ġquality":4110,"Ġdefend":4111,"ĠPan":4112,"ĠTri":4113,"ulations":4114,"Ġlear":4115,"Ġhundred":4116,"Ġsettle":4117,"Ġimpact":4118,"Ġstarting":4119,"Ġconducted":4120,"ĠBook":4121,"thur":4122,"Ġspecific":4123,"Ġstrugg":4124,"Ġallowing":4125,"wh":4126,"ĠEgypt":4127,"ĠSociety":4128,"Ġbeat":4129,"Ġ1942":4130,"Ġpresence":4131,"ĠSol":4132,"Ġamount":4133,"Ġdu":4134,"ĠJer":4135,"Ġsides":4136,"ĠOh":4137,"Ġviewers":4138,"Ġcaptain":4139,"sych":4140,"een":4141,"Ġdance":4142,"Ġmetres":4143,"ingu":4144,"Ġchap":4145,"Ġunivers":4146,"Ġsuppl":4147,"ĠLu":4148,"Ġexhib":4149,"Ġrule":4150,"Ġple":4151,"ĠPrince":4152,"ĠSouthern":4153,"ĠVer":4154,"ĠStephen":4155,"Ġdistinct":4156,"Ġmultiple":4157,"ĠGeorg":4158,"ĠSat":4159,"ding":4160,"Ġtransferred":4161,"Ġpotential":4162,"ĠCommittee":4163,"Ġforeign":4164,"Ġ47":4165,"ĠLatin":4166,"Ġcontrast":4167,"ĠOxford":4168,"Ġ65":4169,"Ġpeaked":4170,"inet":4171,"itiz":4172,"Ġenemy":4173,"Ġyour":4174,"arian":4175,"ĠSil":4176,"Ġtraffic":4177,"Ġbecomes":4178,"Ġmess":4179,"ĠSpec":4180,"ping":4181,"Ġowned":4182,"Ġthings":4183,"Ġfounded":4184,"Ġgreater":4185,"ĠJoseph":4186,"ĠLike":4187,"Ġvocal":4188,"ĠAdmiral":4189,"Ġopt":4190,"Ġconcluded":4191,"Ġportion":4192,"very":4193,"Ġcastle":4194,"Ġscoring":4195,"ĠCamb":4196,"ider":4197,"Ġrespond":4198,"ym":4199,"Ġstories":4200,"Ġproperty":4201,"iance":4202,"Ġattempts":4203,"Ġencoun":4204,"ĠBoston":4205,"rong":4206,"anes":4207,"Ġrelatively":4208,"kn":4209,"ĠTw":4210,"ĠChief":4211,"ĠManchester":4212,"Ġprimarily":4213,"Ġdemonst":4214,"ĠHarrison":4215,"ĠJeff":4216,"Ġfederal":4217,"Ġfinancial":4218,"ograp":4219,"ĠClass":4220,"ressive":4221,"ellig":4222,"ĠForm":4223,"ĠCaptain":4224,"ĠBecause":4225,"ĠBefore":4226,"Ġactually":4227,"Ġanimals":4228,"ĠSwed":4229,"Ġobserved":4230,"ĠHurricane":4231,"Ġtourn":4232,"Ġlif":4233,"ĠWin":4234,"Ġcollection":4235,"ĠTim":4236,"Ġopportun":4237,"fect":4238,"ĠVietn":4239,"ĠBat":4240,"Ġtitled":4241,"Ġ52":4242,"ĠDen":4243,"Ġfeaturing":4244,"istics":4245,"Ġwriters":4246,"Ġ46":4247,"Ġwrite":4248,"Ġ1944":4249,"ĠDef":4250,"Ġjournal":4251,"eds":4252,"Ġwa":4253,"ĠBridge":4254,"ees":4255,"ĠFred":4256,"Ġstrength":4257,"Ġwor":4258,"umber":4259,"Ġinch":4260,"Ġmechan":4261,"Ġweaken":4262,"Ġsituation":4263,"ĠOtt":4264,"Ġspot":4265,"Ġpaid":4266,"Ġdistance":4267,"Ġpremi":4268,"Ġparents":4269,"ĠCommission":4270,"Ġindependent":4271,"ĠBattalion":4272,"Ġfigure":4273,"Ġshare":4274,"mas":4275,"rel":4276,"Ġmel":4277,"Ġactor":4278,"Ġ64":4279,"Ġacting":4280,"Ġcompanies":4281,"Ġdivided":4282,"ĠLittle":4283,"ĠParis":4284,"Ġmind":4285,"Ġ43":4286,"stein":4287,"Ġonto":4288,"ĠProdu":4289,"astic":4290,"ĠLuc":4291,"Ġcollabor":4292,"ĠLife":4293,"ĠColumb":4294,"ĠCarl":4295,"Ġtarget":4296,"anna":4297,"Ġslightly":4298,"Ġfunction":4299,"Ġpiece":4300,"ĠSeries":4301,"Ġreform":4302,"ĠMod":4303,"Ġselling":4304,"Ġ44":4305,"perial":4306,"ĠEntertain":4307,"aud":4308,"ricket":4309,"Ġpowerful":4310,"ĠGra":4311,"Ġtorped":4312,"Ġconcent":4313,"chest":4314,"Ġinnings":4315,"Ġrating":4316,"ĠMax":4317,"thlet":4318,"oration":4319,"ĠBBC":4320,"Ġplays":4321,"istry":4322,"Ġrough":4323,"Ġlot":4324,"Ġtoday":4325,"lam":4326,"Ġbroke":4327,"uge":4328,"Ġcho":4329,"Ġera":4330,"osaur":4331,"ĠPop":4332,"annel":4333,"ĠCroat":4334,"Ġactions":4335,"Ġwaters":4336,"Ġultimately":4337,"ĠOs":4338,"ĠHistor":4339,"Ġtrial":4340,"Ġsquare":4341,"Ġmaximum":4342,"rown":4343,"ada":4344,"Ġdise":4345,"Ġtend":4346,"itan":4347,"Ġpilot":4348,"load":4349,"Ġbound":4350,"Ġlog":4351,"illa":4352,"Ġinterp":4353,"rupt":4354,"Ġcompletely":4355,"ĠAcademy":4356,"Ġblue":4357,"under":4358,"Ġsought":4359,"Ġ1920":4360,"Ġgar":4361,"oti":4362,"Ġ1945":4363,"mond":4364,"Ġscale":4365,"mark":4366,"Ġsociety":4367,"ĠLine":4368,"Ġess":4369,"Ġbehav":4370,"Ġhus":4371,"ĠMuseum":4372,"ĠSaint":4373,"Ġmainly":4374,"ĠSk":4375,"alle":4376,"ota":4377,"Ġdesignated":4378,"Ġ1941":4379,"za":4380,"ĠHor":4381,"omy":4382,"Ġconver":4383,"Ġofficials":4384,"ĠVan":4385,"Ġstruck":4386,"Ġ150":4387,"Ġtransl":4388,"cers":4389,"ylvan":4390,"Ġactivity":4391,"Ġpolicy":4392,"Ġcombined":4393,"Ġsay":4394,"ĠWay":4395,"Ġinfluenced":4396,"Ġwear":4397,"olved":4398,"Ġcorn":4399,"iano":4400,"Ġsearch":4401,"AS":4402,"ĠEntertainment":4403,"ĠArab":4404,"Ġvess":4405,"ĠItaly":4406,"ented":4407,"Ġthous":4408,"Ġcalling":4409,"racted":4410,"Ġalongside":4411,"Ġnortheast":4412,"Ġseconds":4413,"Ġbatter":4414,"ala":4415,"ĠBrigade":4416,"Ġsout":4417,"ĠWind":4418,"orses":4419,"while":4420,"ĠAmericans":4421,"Ġwinter":4422,"ĠConf":4423,"Ġsources":4424,"ĠLee":4425,"Ġseg":4426,"Ġbackground":4427,"phy":4428,"ĠIre":4429,"Ġwebs":4430,"aine":4431,"Ġice":4432,"Ġnews":4433,"udd":4434,"Ġthir":4435,"ĠTod":4436,"Ġtheory":4437,"rative":4438,"Ġrecent":4439,"ĠAlb":4440,"Ġsuc":4441,"TV":4442,"Ġmem":4443,"Ġcrow":4444,"Ġgained":4445,"Ġnominated":4446,"Ġplatform":4447,"HL":4448,"onn":4449,"Ġartists":4450,"adel":4451,"ĠRegiment":4452,"Ġwidely":4453,"Ġnaval":4454,"quarters":4455,"Ġsystems":4456,"Ġpromoted":4457,"Ġelectric":4458,"Ġconfirmed":4459,"ube":4460,"ĠIreland":4461,"pson":4462,"Ġreaching":4463,"Ġproved":4464,"Ġresults":4465,"ĠAvenue":4466,"Ġpassing":4467,"ibrary":4468,"ĠFleet":4469,"Ġalbums":4470,"ĠGood":4471,"ĠEll":4472,"Ġexplained":4473,"Ġsubsequent":4474,"Ġgreatest":4475,"Ġconflict":4476,"ero":4477,"Ġwick":4478,"Ġcontent":4479,"Ġinvasion":4480,"Ġir":4481,"Ġsn":4482,"ĠAut":4483,"ĠRay":4484,"Ġ1989":4485,"Ġcoming":4486,"Ġcharge":4487,"Ġhero":4488,"Ġpeace":4489,"Ġresist":4490,"Ġsixth":4491,"hew":4492,"Ġnorthwest":4493,"Ġweather":4494,"oured":4495,"Ġcounty":4496,"Ġadj":4497,"ĠOrig":4498,"Ġshortly":4499,"grad":4500,"town":4501,"Ġ1943":4502,"aga":4503,"ĠBus":4504,"Ġversions":4505,"ĠSub":4506,"Ġpath":4507,"aling":4508,"Ġserve":4509,"Ġcausing":4510,"Ġsays":4511,"Ġsust":4512,"ĠLo":4513,"Ġ51":4514,"Ġexpressed":4515,"iced":4516,"Ġreception":4517,"Ġseek":4518,"ĠVictoria":4519,"ĠSant":4520,"Ġburn":4521,"itness":4522,"ĠCatholic":4523,"Ġresidents":4524,"Ġemot":4525,"bon":4526,"Ġborder":4527,"ĠNorm":4528,"ĠCharl":4529,"ĠTropical":4530,"ĠWork":4531,"Ġchem":4532,"Ġsoundtrack":4533,"ansion":4534,"ĠValley":4535,"Ġcities":4536,"ĠAdd":4537,"ĠMat":4538,"ips":4539,"Ġgreen":4540,"Ġseasons":4541,"tation":4542,"ĠNin":4543,"ategory":4544,"Ġappearances":4545,"Ġsense":4546,"ĠDi":4547,"ĠLight":4548,"Ġsexual":4549,"Ġhospital":4550,"Ġrequire":4551,"AA":4552,"infall":4553,"ĠMiddle":4554,"Ġpun":4555,"Ġphysical":4556,"Ġidentified":4557,"Ġolder":4558,"ighth":4559,"Ġhands":4560,"ĠLive":4561,"arden":4562,"Ġiron":4563,"ĠRam":4564,"ĠDun":4565,"ĠThough":4566,"Ġtrue":4567,"Ġtells":4568,"Ġoffer":4569,"ĠLiber":4570,"Ġdedic":4571,"Ġkg":4572,"ĠRy":4573,"unction":4574,"ĠCommun":4575,"ysis":4576,"Ġartillery":4577,"ancy":4578,"ĠShow":4579,"Ġrepresented":4580,"ĠTop":4581,"Ġweapons":4582,"ĠVol":4583,"Ġextra":4584,"Ġgas":4585,"ĠFootball":4586,"Ġahead":4587,"ĠThrough":4588,"eption":4589,"Ġpal":4590,"aded":4591,"ĠMen":4592,"ronic":4593,"ylvania":4594,"Ġeas":4595,"ĠKar":4596,"ĠJul":4597,"Ġheavily":4598,"ĠBey":4599,"ĠUpon":4600,"ĠYoung":4601,"Ġsupp":4602,"ĠDirect":4603,"abeth":4604,"itable":4605,"ĠTay":4606,"Ġavoid":4607,"ĠDutch":4608,"lers":4609,"Ġdefense":4610,"Ġchallen":4611,"Ġstudent":4612,"Ġagg":4613,"ĠWeek":4614,"Ġalone":4615,"Ġimage":4616,"Ġspread":4617,"Ġapparent":4618,"Ġstudies":4619,"Ġofficially":4620,"ĠEliz":4621,"Ġhusband":4622,"known":4623,"Ġdistrict":4624,"ĠIll":4625,"Ġexecutive":4626,"Ġbit":4627,"Ġinstit":4628,"ĠAlbert":4629,"ĠFre":4630,"bur":4631,"essions":4632,"Ġdebuted":4633,"Ġwild":4634,"Ġprominent":4635,"Ġcapture":4636,"Ġpack":4637,"Ġconsisted":4638,"Ġinstrument":4639,"Ġsend":4640,"Ġinjury":4641,"Ġfired":4642,"Ġorganization":4643,"Ġequipment":4644,"ĠRog":4645,"ports":4646,"Ġresc":4647,"Ġstone":4648,"pool":4649,"Ġpattern":4650,"ĠFar":4651,"Ġprepar":4652,"ĠBre":4653,"Ġargued":4654,"ĠDam":4655,"Ġaired":4656,"Ġfigures":4657,"ĠBond":4658,"Ġsurpris":4659,"Ġexped":4660,"urban":4661,"Ġgrowth":4662,"Ġeth":4663,"Ġpict":4664,"acity":4665,"ĠCivil":4666,"ĠHomer":4667,"Ġbud":4668,"Ġhun":4669,"Ġcouple":4670,"Ġgraph":4671,"Ġdoing":4672,"Ġreturning":4673,"Ġmagn":4674,"Ġring":4675,"Ġcontemporary":4676,"ushed":4677,"Ġpoet":4678,"Ġcert":4679,"lines":4680,"rog":4681,"Ġpan":4682,"Ġweight":4683,"Ġox":4684,"Ġlaid":4685,"Ġdoub":4686,"Ġhabit":4687,"Ġearth":4688,"Ġleaders":4689,"Ġstep":4690,"Ġfloor":4691,"Ġmatter":4692,"Ġaffected":4693,"ĠNorthern":4694,"ĠGal":4695,"Ġpieces":4696,"Ġtun":4697,"Ġ600":4698,"appen":4699,"amber":4700,"Ġpropos":4701,"ĠStorm":4702,"ias":4703,"Ġmaintained":4704,"inson":4705,"Ġrang":4706,"Ġoccasion":4707,"Ġshell":4708,"ĠHard":4709,"Ġhere":4710,"ifying":4711,"Ġvisited":4712,"Ġmaintain":4713,"ental":4714,"Ġcommunic":4715,"ĠDaniel":4716,"ĠHa":4717,"Ġcomes":4718,"Ġspeech":4719,"Ġtermin":4720,"Ġcriticized":4721,"emic":4722,"Ġhyd":4723,"Ġactivities":4724,"stone":4725,"Ġrain":4726,"rat":4727,"ĠJon":4728,"ĠCarolina":4729,"ockey":4730,"Ġexec":4731,"Ġattract":4732,"acement":4733,"Ġhall":4734,"ola":4735,"Ġcitiz":4736,"Ġtournament":4737,"Ġreign":4738,"Ġemph":4739,"Ġtoward":4740,"ocked":4741,"Ġsingles":4742,"uls":4743,"Ġdrug":4744,"Ġtrees":4745,"eed":4746,"Ġreference":4747,"ners":4748,"ĠScottish":4749,"Ġcrowd":4750,"ĠTem":4751,"Ġsenior":4752,"Ġformation":4753,"elve":4754,"Ġ53":4755,"Ġadapt":4756,"Ġ1987":4757,"Ġsurre":4758,"ĠRom":4759,"ĠMarsh":4760,"Ġsetting":4761,"Ġmedical":4762,"ivity":4763,"Ġworldwide":4764,"ĠSystem":4765,"Ġterritory":4766,"Ġtrying":4767,"ĠGovernment":4768,"estic":4769,"ĠHolly":4770,"Ġ1988":4771,"uct":4772,"Ġappl":4773,"Ġstations":4774,"orne":4775,"ruit":4776,"Ġdog":4777,"Ġbul":4778,"Ġnegoti":4779,"Ġbirds":4780,"ĠWrit":4781,"ĠFantasy":4782,"Ġgod":4783,"ĠOcean":4784,"gian":4785,"ĠOperation":4786,"eller":4787,"Ġdoll":4788,"ĠBackground":4789,"ĠField":4790,"Ġmachine":4791,"Ġfellow":4792,"ĠGovernor":4793,"Ġmurder":4794,"embly":4795,"ĠRod":4796,"Ġclaims":4797,"ĠDistrict":4798,"ĠHome":4799,"Ġcell":4800,"Ġdispl":4801,"Ġ85":4802,"ĠDev":4803,"Ġhistorian":4804,"ĠGuard":4805,"Ġrainfall":4806,"Ġrisk":4807,"ĠChe":4808,"omers":4809,"Ġaccident":4810,"ĠPenns":4811,"Ġfully":4812,"ĠColon":4813,"Ġload":4814,"uled":4815,"Ġvalue":4816,"Ġtherefore":4817,"ote":4818,"Ġsplit":4819,"bit":4820,"resh":4821,"ĠDuke":4822,"Ġchosen":4823,"Ġtreatment":4824,"Ġuniversity":4825,"Ġguest":4826,"ĠShort":4827,"velopment":4828,"rael":4829,"Ġsens":4830,"Ġtwice":4831,"ĠStudios":4832,"Ġfrequently":4833,"ĠGirl":4834,"Ġsupply":4835,"agn":4836,"ĠPolish":4837,"ĠLew":4838,"Ġreports":4839,"ordin":4840,"stitution":4841,"Ġleaves":4842,"ĠBeat":4843,"Ġgovernor":4844,"illy":4845,"ayer":4846,"Ġpaper":4847,"gu":4848,"Ġut":4849,"ĠSenate":4850,"Ġremark":4851,"aly":4852,"Ġdyn":4853,"ampion":4854,"ĠEastern":4855,"ledge":4856,"Ġlabel":4857,"izes":4858,"Ġfaced":4859,"azz":4860,"ĠMD":4861,"Ġopin":4862,"Ġwalls":4863,"Ġfollows":4864,"ĠCorn":4865,"Ġbillion":4866,"Ġoperated":4867,"ĠBart":4868,"Ġgrew":4869,"antine":4870,"ĠRos":4871,"ufact":4872,"Ġsurrounding":4873,"Ġplanet":4874,"ĠMean":4875,"min":4876,"Ġswe":4877,"rect":4878,"ĠAndrew":4879,"orter":4880,"antly":4881,"Ġcontained":4882,"onents":4883,"gend":4884,"Ġcondition":4885,"resp":4886,"Ġdegree":4887,"Ġbal":4888,"Ġherself":4889,"Ġhorses":4890,"Ġmanufact":4891,"ĠChristmas":4892,"ĠNight":4893,"ety":4894,"Ġcolor":4895,"isco":4896,"ĠJud":4897,"Ġsle":4898,"Ġaccompan":4899,"Ġwounded":4900,"rance":4901,"Ġtypically":4902,"Ġescape":4903,"ĠAllied":4904,"Ġ54":4905,"Ġpasses":4906,"Ġunf":4907,"Ġmaster":4908,"Ġsimply":4909,"ĠWilson":4910,"Ġbrown":4911,"Ġfuel":4912,"Ã¨":4913,"isters":4914,"Ġreinf":4915,"utation":4916,"Ġrailway":4917,"ĠInst":4918,"Ġelement":4919,"Ġdraft":4920,"Ġdang":4921,"ĠTaylor":4922,"aming":4923,"Ġeditor":4924,"Ġlives":4925,"la":4926,"Ġ1986":4927,"Ġorders":4928,"Ġarms":4929,"ĠElizabeth":4930,"Ġphil":4931,"mit":4932,"fully":4933,"more":4934,"Ġserving":4935,"Ġnothing":4936,"ographer":4937,"Ġcamer":4938,"ĠHum":4939,"ĠAlexander":4940,"uous":4941,"Ġauthority":4942,"Ġchose":4943,"ĠMike":4944,"Ġopposed":4945,"Ġworkers":4946,"Ġvote":4947,"Ġmoment":4948,"ĠGi":4949,"Ġconsecutive":4950,"Ġcannot":4951,"ricult":4952,"ĠPen":4953,"ĠEach":4954,"Ġnewly":4955,"Ġ95":4956,"ĠJoe":4957,"ĠOf":4958,"tar":4959,"Ġnative":4960,"ĠJac":4961,"Ġ56":4962,"Ġfan":4963,"Ġexperiment":4964,"ucky":4965,"Ġunknown":4966,"Ġ97":4967,"isf":4968,"Ġparticipated":4969,"ager":4970,"Ġgrowing":4971,"rich":4972,"ĠPers":4973,"Ġwebsite":4974,"Ġcasual":4975,"Ġemphas":4976,"Ġpsych":4977,"Ġattrib":4978,"ancing":4979,"ãĤ":4980,"ĠDet":4981,"Ġproducers":4982,"ef":4983,"Ġbass":4984,"ĠÎ":4985,"Ġnewspaper":4986,"Ġfair":4987,"ĠCastle":4988,"Ġbenef":4989,"Ġlosing":4990,"Ã¤":4991,"ĠExp":4992,"ĠFestival":4993,"ĠLand":4994,"Ġadvanced":4995,"Ġadopted":4996,"ilies":4997,"Ġfilming":4998,"imens":4999,"ĠSound":5000,"Ġheard":5001,"Ġspirit":5002,"Ġfeed":5003,"Ġsevere":5004,"ĠPennsylvania":5005,"pton":5006,"Ġoffensive":5007,"Ġopposition":5008,"then":5009,"Ġfirm":5010,"Ġfiction":5011,"ype":5012,"ĠRet":5013,"Ġextend":5014,"ĠWhat":5015,"Ġguard":5016,"ĠWat":5017,"Ġcapacity":5018,"Ġrom":5019,"ĠHead":5020,"orship":5021,"ĠIslands":5022,"Ġbasis":5023,"Ġcouncil":5024,"Ġsequence":5025,"Ġactors":5026,"ĠCard":5027,"ĠWW":5028,"zy":5029,"Ġends":5030,"Ġ177":5031,"Ġast":5032,"ĠReception":5033,"ĠHy":5034,"TC":5035,"anda":5036,"Ġweak":5037,"Ġsquadron":5038,"uses":5039,"ĠGall":5040,"ĠBlue":5041,"Ġprin":5042,"Ġcompar":5043,"Ġadvant":5044,"Ġrear":5045,"Ġabandoned":5046,"ura":5047,"aven":5048,"ĠIrish":5049,"ĠFurther":5050,"Ġrival":5051,"isers":5052,"ĠTech":5053,"ĠSS":5054,"ables":5055,"iated":5056,"Ġprompt":5057,"ĠBab":5058,"Ġkick":5059,"Ġhonor":5060,"Ġflying":5061,"lement":5062,"Ġelev":5063,"Ġenter":5064,"Ġcoal":5065,"Ġbey":5066,"Ġcreating":5067,"ocated":5068,"ĠFam":5069,"ĠJersey":5070,"onc":5071,"ĠSpain":5072,"Ġlaunch":5073,"Ġfilmed":5074,"ĠHarry":5075,"Ġpoll":5076,"BA":5077,"Ġregarded":5078,"Ġhappen":5079,"Ġnormal":5080,"Ġexpansion":5081,"Ġcriticism":5082,"Ġindividuals":5083,"Ġhomes":5084,"ĠCat":5085,"eld":5086,"Ġagreement":5087,"Ġbeyond":5088,"ounger":5089,"ĠUs":5090,"Ġincident":5091,"Ġ178":5092,"Ġspect":5093,"Ġ76":5094,"FA":5095,"Ġspring":5096,"ĠSquare":5097,"Ġdelay":5098,"Ġfailure":5099,"apers":5100,"ĠCa":5101,"Ġliber":5102,"ĠCoast":5103,"Ġevac":5104,"Ġdeploy":5105,"Ġeye":5106,"Ġdismiss":5107,"Ġchair":5108,"Ġsports":5109,"ĠLind":5110,"Ġfamous":5111,"iner":5112,"Ġinte":5113,"Ġvo":5114,"Ġsail":5115,"ĠFe":5116,"Ġmeasure":5117,"Ġ1939":5118,"ĠAre":5119,"ĠSand":5120,"Ġpossibly":5121,"Ġboat":5122,"imet":5123,"Ġhistorical":5124,"Ġnegative":5125,"Ġbodies":5126,"ĠCD":5127,"ima":5128,"ĠUl":5129,"Ġachieved":5130,"Ġmob":5131,"Ġcontact":5132,"ĠBul":5133,"ĠWild":5134,"Ġprogress":5135,"Ġstrike":5136,"Ġsilver":5137,"ifications":5138,"Ġbelieve":5139,"ico":5140,"ĠMul":5141,"ĠPublic":5142,"ĠEnd":5143,"ĠElect":5144,"Ġroles":5145,"ĠBroad":5146,"iny":5147,"ĠProduction":5148,"Ġnarrow":5149,"Ġur":5150,"ĠCy":5151,"Ġkilling":5152,"ĠVen":5153,"Ġretired":5154,"Ġideas":5155,"ĠInstitute":5156,"ĠLy":5157,"ĠIsrael":5158,"ienced":5159,"Ġdrive":5160,"onent":5161,"Ġdisease":5162,"mosp":5163,"iana":5164,"hol":5165,"Ġpet":5166,"Ġtorpedo":5167,"war":5168,"Ġimag":5169,"Ġbriefly":5170,"kins":5171,"Ġ61":5172,"Ġdiam":5173,"ĠArthur":5174,"ĠLiver":5175,"ĠRevolution":5176,"imal":5177,"ĠDue":5178,"Ġ1968":5179,"Ġ1985":5180,"Ġtask":5181,"Ġeffective":5182,"Ġtree":5183,"Ġarmed":5184,"Ġapplic":5185,"Ġarrang":5186,"edom":5187,"Ġtower":5188,"ĠAsh":5189,"Ġ66":5190,"ĠCub":5191,"Ġbudget":5192,"Ġperman":5193,"Ġreceive":5194,"Ġrepeated":5195,"Ġadministration":5196,"Ġgranted":5197,"Ġnecessary":5198,"Ġpersonnel":5199,"Ġroads":5200,"ĠSund":5201,"ocks":5202,"Ġrejected":5203,"ĠMeanwhile":5204,"enger":5205,"Ġtable":5206,"ĠPerson":5207,"ĠRepublican":5208,"Ġtwelve":5209,"ĠClark":5210,"Ġkilometres":5211,"Ġinh":5212,"ĠDoctor":5213,"Ġgross":5214,"Ġimproved":5215,"Ġleadership":5216,"kes":5217,"ĠAlbum":5218,"Ġcolumn":5219,"worth":5220,"Ġinterchange":5221,"Ġyellow":5222,"avalry":5223,"Ġextensive":5224,"aved":5225,"Ġdata":5226,"ĠMir":5227,"ĠOhio":5228,"ĠTy":5229,"iments":5230,"ourney":5231,"Ġstraight":5232,"Ġturns":5233,"Ġlands":5234,"Ġplants":5235,"Ġinfantry":5236,"Ġpurpose":5237,"zil":5238,"Ġparalle":5239,"ĠLes":5240,"Ġmanagement":5241,"ĠBell":5242,"Ġexpress":5243,"Ġdefin":5244,"ĠBoard":5245,"iÄĩ":5246,"Ġseat":5247,"Ġlanding":5248,"och":5249,"oln":5250,"Ġdescribes":5251,"Ġexpanded":5252,"ĠSecretary":5253,"Ġsolo":5254,"Ġfranch":5255,"oma":5256,"Ġchoice":5257,"Ġsuccessfully":5258,"lusion":5259,"Ġmile":5260,"Ġbroken":5261,"adelph":5262,"Ġlearn":5263,"set":5264,"Ġtru":5265,"Ġcrossing":5266,"Ġdidn":5267,"Ġintellig":5268,"Ġanimal":5269,"uate":5270,"Ġ1984":5271,"Ġdeliver":5272,"ĠSa":5273,"ĠEp":5274,"Ġexplos":5275,"ĠPhiladelph":5276,"Ġfought":5277,"gers":5278,"Ġchor":5279,"Ġexcl":5280,"ĠProt":5281,"ĠBru":5282,"ĠRA":5283,"Ġorganized":5284,"Ġcaught":5285,"Ġ800":5286,"erc":5287,"Ġvehicles":5288,"Ġcommissioned":5289,"Ġsuggests":5290,"ĠBurn":5291,"Ġroof":5292,"Ġglob":5293,"ĠEven":5294,"Ġacquired":5295,"haps":5296,"stream":5297,"etball":5298,"Ġplaces":5299,"Ġcommittee":5300,"ĠNever":5301,"rif":5302,"Ġancient":5303,"ev":5304,"Ġdrama":5305,"ĠIS":5306,"ĠHit":5307,"ĠGeorgia":5308,"Ġcreation":5309,"ĠSher":5310,"ĠMov":5311,"ĠCambridge":5312,"Ġtypes":5313,"Ġfat":5314,"appy":5315,"Ġ57":5316,"Ġgives":5317,"ĠLar":5318,"ĠPhiladelphia":5319,"Ġarticle":5320,"Ġcomedy":5321,"Ġseventh":5322,"Ġprefer":5323,"Ġnuclear":5324,"akers":5325,"Ġsoft":5326,"zer":5327,"Ġunsu":5328,"Ġwave":5329,"ms":5330,"Ġ120":5331,"ii":5332,"aith":5333,"etts":5334,"ĠSR":5335,"Ġauthorities":5336,"Ġcontain":5337,"Ġheadquarters":5338,"ĠRel":5339,"ĠAlso":5340,"Ġ1967":5341,"Ġcenturies":5342,"Ġcommonly":5343,"Ġdetermined":5344,"rin":5345,"Ġislands":5346,"Ġgenus":5347,"ns":5348,"Ġroll":5349,"ĠAddition":5350,"Ġmentioned":5351,"attle":5352,"ĠRussia":5353,"ĠMah":5354,"Ġbott":5355,"Ġrecently":5356,"Ġstreet":5357,"Ġtrav":5358,"oted":5359,"umes":5360,"ĠWars":5361,"Ġbeaut":5362,"Ġencoura":5363,"Ġlooking":5364,"ĠGil":5365,"Ġcontrolled":5366,"amin":5367,"Ġfavour":5368,"20":5369,"ipl":5370,"restling":5371,"uan":5372,"ĠCommon":5373,"arts":5374,"oles":5375,"ĠArg":5376,"Ġsets":5377,"Ġfamilies":5378,"ĠAmong":5379,"Ġhousehold":5380,"Ġsecurity":5381,"ĠLiverpool":5382,"Ġaim":5383,"Ġfinds":5384,"Ġadvert":5385,"Ġsand":5386,"Ġdecre":5387,"ĠNintend":5388,"Ġdrop":5389,"Ġsuppor":5390,"Ġacad":5391,"Ġstanding":5392,"va":5393,"Ġla":5394,"Ġillust":5395,"ishes":5396,"ĠLinc":5397,"Ġunp":5398,"uting":5399,"ĠNintendo":5400,"outs":5401,"gn":5402,"ĠChap":5403,"Ġsinging":5404,"Ġwithdraw":5405,"ĠKa":5406,"ĠEarl":5407,"Ġfish":5408,"ĠHay":5409,"Ġdial":5410,"Ġven":5411,"Ġbattalion":5412,"Ġreflect":5413,"ĠJenn":5414,"ĠPrime":5415,"ĠColumbia":5416,"ĠBad":5417,"Ġunique":5418,"Ġsac":5419,"itled":5420,"Ġdeck":5421,"Ġheight":5422,"Ġcontaining":5423,"Ġcultural":5424,"Ġentirely":5425,"Ġorchest":5426,"Ġprotect":5427,"water":5428,"Ġfinish":5429,"ĠLincoln":5430,"oh":5431,"Ġtouchdown":5432,"Ġmist":5433,"ĠSingap":5434,"illing":5435,"Ġcontributed":5436,"ĠAsia":5437,"Ġtry":5438,"Ġthemes":5439,"ĠDevelopment":5440,"ĠKorean":5441,"Ġyounger":5442,"Ġprovides":5443,"Ġdefence":5444,"Ġflooding":5445,"ĠLieutenant":5446,"ĠBrazil":5447,"Ġ1983":5448,"pping":5449,"Ġatmosp":5450,"Ġ58":5451,"ĠChild":5452,"Ġ74":5453,"Ġawards":5454,"room":5455,"Ġtitles":5456,"Ġmis":5457,"ulate":5458,"Ġpurchased":5459,"ĠJewish":5460,"Ġpowers":5461,"inity":5462,"Ġarrival":5463,"ĠHun":5464,"Ġconvers":5465,"Ġscheduled":5466,"Ġdefensive":5467,"ĠFrancisco":5468,"respond":5469,"Ġresemb":5470,"ĠRol":5471,"ĠSingapore":5472,"Ġthing":5473,"Ġaccompanied":5474,"wall":5475,"Ġceremony":5476,"icial":5477,"Ġunus":5478,"Ġquite":5479,"Ġperfect":5480,"Ġ1964":5481,"Ġexpedition":5482,"ĠPeople":5483,"Ġworth":5484,"ĠSix":5485,"wick":5486,"Ġ1969":5487,"atures":5488,"Ġlocations":5489,"Ġexisting":5490,"ĠDark":5491,"ĠHon":5492,"Ġinteract":5493,"Ġadvantage":5494,"Ġperforming":5495,"ĠPot":5496,"ĠCarey":5497,"Ġphilos":5498,"ĠOffice":5499,"rons":5500,"Ġdedicated":5501,"Ġcomputer":5502,"ĠLis":5503,"Ġbat":5504,"acted":5505,"ker":5506,"ĠBor":5507,"ĠDisney":5508,"Ġextrem":5509,"Ġrequest":5510,"laim":5511,"ĠâĪ":5512,"Ġintensity":5513,"Station":5514,"ĠTam":5515,"ĠKey":5516,"Ġstore":5517,"Ġoccupied":5518,"Ġ1914":5519,"dy":5520,"agan":5521,"Ġwhy":5522,"Ġsquad":5523,"Ġ1918":5524,"ĠPlayStation":5525,"Ġfresh":5526,"ĠHMS":5527,"Ġcarry":5528,"Ġmounted":5529,"iling":5530,"ĠOrder":5531,"usc":5532,"ĠKel":5533,"ashion":5534,"Ġnob":5535,"Ġ1982":5536,"ĠTurn":5537,"ta":5538,"Ġfix":5539,"Ġtail":5540,"Ġ1971":5541,"Ġmouth":5542,"ĠAnderson":5543,"ĠBrook":5544,"ĠBalt":5545,"Ġcricket":5546,"Ġmic":5547,"fort":5548,"ĠMot":5549,"ĠSteve":5550,"Ġclosely":5551,"rations":5552,"Ġconsists":5553,"Ġcurrently":5554,"ĠLewis":5555,"mann":5556,"ĠMiller":5557,"Ġlic":5558,"Ġsession":5559,"Ġ1966":5560,"hens":5561,"ĠByz":5562,"Ġ1972":5563,"ĠRadio":5564,"ĠDie":5565,"ĠConference":5566,"yles":5567,"Ġtim":5568,"Ġ1979":5569,"Ġindustrial":5570,"mouth":5571,"Ġegg":5572,"ĠBas":5573,"Ġsimple":5574,"ava":5575,"Ġ59":5576,"Ġelimin":5577,"pper":5578,"Ġvari":5579,"Ġpiano":5580,"ĠOnce":5581,"Ġfacilities":5582,"Ġcold":5583,"ilton":5584,"Ġsupporting":5585,"Ġdrawn":5586,"ĠGrant":5587,"ĠOlympic":5588,"Ġty":5589,"ware":5590,"Ġtrains":5591,"ĠConn":5592,"Ġbelong":5593,"ĠPu":5594,"ĠShak":5595,"Ġprotection":5596,"Ġboats":5597,"ĠBrian":5598,"Ġrated":5599,"Ġrise":5600,"Ġdefined":5601,"Ġselection":5602,"Ġsteam":5603,"Ġharm":5604,"Ġrow":5605,"otic":5606,"Ġ1965":5607,"Ġregions":5608,"iro":5609,"ĠSu":5610,"awa":5611,"ĠBarb":5612,"Ġsubmar":5613,"ĠRailway":5614,"Ġprotected":5615,"Ġcalls":5616,"Ġpros":5617,"Ġhair":5618,"ĠNHL":5619,"Ġ#":5620,"Ġcomic":5621,"ĠEmperor":5622,"Ġmotion":5623,"gest":5624,"verse":5625,"Ġstructures":5626,"Ġthrow":5627,"Ġlap":5628,"Ġaid":5629,"Ġshark":5630,"ĠAtt":5631,"Ġlabor":5632,"Ġfocused":5633,"Ġopportunity":5634,"Ġ99":5635,"Ġ1975":5636,"Ġengaged":5637,"Ġreceiving":5638,"ingly":5639,"iration":5640,"Ġcorrespond":5641,"ĠMu":5642,"Ġshooting":5643,"Ġanalysis":5644,"Ġsport":5645,"Ġcitizens":5646,"Ġmotor":5647,"ba":5648,"Ġobserv":5649,"Ġstrengthen":5650,"ĠGulf":5651,"osa":5652,"Ġnotable":5653,"Ã¸":5654,"sey":5655,"Ġadap":5656,"ĠAv":5657,"ĠJr":5658,"ĠSummer":5659,"uzz":5660,"ĠPress":5661,"ĠWater":5662,"Ġexperienced":5663,"ĠGermans":5664,"ĠHollywood":5665,"ults":5666,"ĠSerb":5667,"ua":5668,"Ġconference":5669,"Ġproviding":5670,"Ġholding":5671,"ĠWalter":5672,"ĠInc":5673,"inger":5674,"Ġvisual":5675,"Ġmountain":5676,"Ġeyes":5677,"ĠHan":5678,"ĠOnly":5679,"Ġ1974":5680,"Ġresident":5681,"olid":5682,"ĠDavis":5683,"ading":5684,"Ġsoutheast":5685,"ĠLab":5686,"Ġmut":5687,"Ġhired":5688,"Ġcharts":5689,"unior":5690,"Ġviewed":5691,"FL":5692,"Ġmerch":5693,"Ġbranch":5694,"heim":5695,"ifically":5696,"inth":5697,"Ġ62":5698,"Ġrapidly":5699,"burgh":5700,"Ġrecognized":5701,"Ġrob":5702,"iler":5703,"Ġ1973":5704,"ĠGib":5705,"Ġvolume":5706,"Ġvac":5707,"opher":5708,"Ġtransform":5709,"Ġalle":5710,"ĠDemocratic":5711,"ĠReview":5712,"Ġprote":5713,"Ġscholars":5714,"Ġ63":5715,"Ġsites":5716,"essed":5717,"Ġgain":5718,"Ġ77":5719,"ĠSpecial":5720,"Ġcasualties":5721,"Ġteach":5722,"Ġhyp":5723,"Ġshared":5724,"Ġconcer":5725,"Ġparallel":5726,"ĠUN":5727,"Ġ73":5728,"ĠJean":5729,"ĠBetween":5730,"Ġpublication":5731,"ĠDown":5732,"Ġcart":5733,"Ġtemperature":5734,"Ġdigital":5735,"ĠFall":5736,"Ġ1976":5737,"Ġmoder":5738,"Ġeconomy":5739,"ĠRome":5740,"ĠBank":5741,"ĠKir":5742,"Ġdeveloping":5743,"Ġsteel":5744,"Ġreaction":5745,"Ġedge":5746,"box":5747,"friend":5748,"standing":5749,"Ġcool":5750,"roll":5751,"ĠPrinc":5752,"Ġintersection":5753,"Ġsymbol":5754,"ali":5755,"zen":5756,"ĠLady":5757,"yer":5758,"Ġapproved":5759,"oncÃ©":5760,"Ġsecondary":5761,"Ġchance":5762,"ĠNap":5763,"ĠProv":5764,"ĠGord":5765,"ĠOb":5766,"Ġvon":5767,"Ġhydro":5768,"omew":5769,"Ġlosses":5770,"Ġmyth":5771,"Ġcontest":5772,"rant":5773,"Ġrac":5774,"rence":5775,"Ġprepared":5776,"Ġsubstant":5777,"ĠMas":5778,"Ġbelief":5779,"itors":5780,"ĠDaily":5781,"ĠTen":5782,"Ġenl":5783,"ĠMusl":5784,"iful":5785,"Ġletters":5786,"ologist":5787,"Ã¡n":5788,"ographic":5789,"ĠWomen":5790,"Ġsignificantly":5791,"Ġwitness":5792,"Ġbands":5793,"Ġsort":5794,"onder":5795,"Ġcard":5796,"Ġsave":5797,"ĠNaz":5798,"Ġdomestic":5799,"ĠSyd":5800,"Ġ250":5801,"Ġfranchise":5802,"Ġknew":5803,"ryst":5804,"Ġgoes":5805,"Ġliterature":5806,"ĠBeyoncÃ©":5807,"eral":5808,"Ġunsuccess":5809,"Ġinstruct":5810,"Ġheads":5811,"achus":5812,"Ġsouthwest":5813,"Ġactress":5814,"Ġtechnology":5815,"Ġsemi":5816,"Ġ67":5817,"Ġadvent":5818,"break":5819,"ora":5820,"Ġdescend":5821,"Ġroughly":5822,"range":5823,"Ġurban":5824,"Ġcab":5825,"asty":5826,"ĠCommand":5827,"ĠBern":5828,"aka":5829,"unte":5830,"ĠPlan":5831,"theless":5832,"Ġpainting":5833,"Ġadult":5834,"Ġlb":5835,"ĠMain":5836,"Ġanything":5837,"Ġcars":5838,"Ġpitch":5839,"Ġprojects":5840,"enc":5841,"Ġassault":5842,"ĠIndust":5843,"ĠColonel":5844,"Ġexact":5845,"ella":5846,"Ġbrothers":5847,"ients":5848,"Ġresistance":5849,"Ġgameplay":5850,"ĠPoint":5851,"Ġcore":5852,"ĠNick":5853,"Ġshape":5854,"Ġstoryline":5855,"ĠWhit":5856,"ĠSupreme":5857,"Ġreasons":5858,"ĠFair":5859,"Ġrules":5860,"iminal":5861,"Ġign":5862,"Ġemployed":5863,"Ġtank":5864,"ĠIV":5865,"ropri":5866,"ĠVar":5867,"ĠKentucky":5868,"Ġdaily":5869,"ĠStation":5870,"Ġshall":5871,"Ġinjured":5872,"Ġ1946":5873,"ĠSpring":5874,"Ġwatched":5875,"Ġ1981":5876,"ati":5877,"Ġagent":5878,"onym":5879,"Ġpopularity":5880,"Ġcomposition":5881,"ĠâĪĴ":5882,"Ġ96":5883,"ira":5884,"ĠCur":5885,"Ġperhaps":5886,"Ġfit":5887,"Ġisol":5888,"Ġadding":5889,"Ġenjoyed":5890,"Ġrenamed":5891,"Ġopinion":5892,"ĠIndepend":5893,"Ġgetting":5894,"omic":5895,"Ġdeclined":5896,"Ġcalc":5897,"oz":5898,"ĠNorway":5899,"agement":5900,"ĠRoss":5901,"Ġcompris":5902,"Ġ68":5903,"Ġreputation":5904,"Ġlov":5905,"Ġnor":5906,"osl":5907,"inking":5908,"ĠTheat":5909,"ĠPrem":5910,"Ġshaped":5911,"Ġ72":5912,"Ġestate":5913,"Ġconnected":5914,"Ġundert":5915,"Ġrend":5916,"Ġretire":5917,"Ġdrew":5918,"Ġ1917":5919,"Ġmuseum":5920,"Ġpoem":5921,"Ġregarding":5922,"bound":5923,"ĠOlympics":5924,"Ġviews":5925,"oir":5926,"ĠMos":5927,"Ġstages":5928,"ulpt":5929,"ĠPhilipp":5930,"Ġconverted":5931,"Ġdry":5932,"ceived":5933,"amm":5934,"ĠGolden":5935,"ĠMassachus":5936,"gal":5937,"ĠWalk":5938,"iform":5939,"ĠBase":5940,"Ġagricult":5941,"han":5942,"Ġallows":5943,"Ġsun":5944,"ĠSel":5945,"ads":5946,"Ġdistingu":5947,"Ġnick":5948,"Ġalternative":5949,"ĠMassachusetts":5950,"ĠBall":5951,"vest":5952,"ĠAbb":5953,"rets":5954,"Ġbed":5955,"ĠImp":5956,"Ġheaded":5957,"igg":5958,"Ġjourney":5959,"Ġ87":5960,"ĠSus":5961,"ĠDream":5962,"athan":5963,"Ġdepth":5964,"ules":5965,"Ġmissing":5966,"Ġcited":5967,"ato":5968,"Ġincreasingly":5969,"eper":5970,"ko":5971,"ĠLet":5972,"osis":5973,"Ġstadium":5974,"ĠRon":5975,"Ġapproached":5976,"Ġ160":5977,"ĠAirport":5978,"Ġturning":5979,"ĠHart":5980,"Ġresponded":5981,"Ġplanning":5982,"Ġknowledge":5983,"Ġexerc":5984,"ĠVi":5985,"Ġeasily":5986,"Ġwealth":5987,"Ġ1948":5988,"Ġoverl":5989,"Ġcells":5990,"ilding":5991,"Ġfashion":5992,"Ġequal":5993,"Ġescort":5994,"olt":5995,"Ġ700":5996,"ĠAbout":5997,"Ġcollected":5998,"Ġsucceeded":5999,"psons":6000,"Ġconstitution":6001,"mod":6002,"eman":6003,"ĠKen":6004,"Ġflu":6005,"Ġsafety":6006,"ĠBal":6007,"Ġrebu":6008,"Ġexistence":6009,"unicip":6010,"Ġtrip":6011,"Ġpul":6012,"ĠRun":6013,"wise":6014,"ignment":6015,"ĠSimpsons":6016,"Ġintroduction":6017,"Ġoccas":6018,"Ġauth":6019,"Ġmodels":6020,"Ġlearned":6021,"ĠInit":6022,"Ġcolle":6023,"Ġsustained":6024,"rett":6025,"hi":6026,"Ġtall":6027,"Ġpromotion":6028,"Ġoperating":6029,"Ġ69":6030,"Ġ1978":6031,"uration":6032,"mitted":6033,"ĠMcG":6034,"Ġbaseball":6035,"Ġcarrying":6036,"Ġlimit":6037,"ĠSongs":6038,"Ġexchange":6039,"Ġshowing":6040,"iger":6041,"Ġyouth":6042,"onia":6043,"ĠImperial":6044,"Ġburied":6045,"engers":6046,"ĠVietnam":6047,"Ġ91":6048,"Ġhumans":6049,"eg":6050,"Ġcredited":6051,"Ġ78":6052,"come":6053,"Ġdepend":6054,"leton":6055,"Ġarranged":6056,"ĠOttoman":6057,"ĠLoc":6058,"Ġimprove":6059,"Ġimpl":6060,"Ġseems":6061,"ĠJay":6062,"Ġweakened":6063,"ĠCape":6064,"Ġdesigns":6065,"Ġ1915":6066,"inary":6067,"Ġvan":6068,"Ġjoint":6069,"ĠShortly":6070,"Ġpaint":6071,"Ġathlet":6072,"state":6073,"istan":6074,"Ġrhy":6075,"Ġproducing":6076,"Ġproceed":6077,"ĠPoland":6078,"eler":6079,"acts":6080,"Ġshel":6081,"ĠSydney":6082,"Ġfreeway":6083,"ĠMoore":6084,"oli":6085,"Ġ1977":6086,"Ġearliest":6087,"Ġflat":6088,"ĠWho":6089,"Ġlasted":6090,"ĠMaryland":6091,"Ġlandfall":6092,"Ġsettlement":6093,"put":6094,"ĠPict":6095,"Ġnote":6096,"ĠRoy":6097,"Ġdescription":6098,"Ġretained":6099,"Ġacres":6100,"Ġbrand":6101,"ĠStew":6102,"Ġton":6103,"Ġ94":6104,"ĠRem":6105,"ĠNaval":6106,"ĠMTV":6107,"ĠAD":6108,"Ġlaws":6109,"Ġappoint":6110,"ĠCra":6111,"ivalent":6112,"Ġgenre":6113,"Ġprograms":6114,"Ġconsc":6115,"ources":6116,"Ġassistant":6117,"Äģ":6118,"rell":6119,"Ġplayoff":6120,"ivered":6121,"ĠJes":6122,"Ġreplace":6123,"ader":6124,"Ġinstall":6125,"bell":6126,"Ġreserve":6127,"issance":6128,"Ġstatement":6129,"Ġvirt":6130,"Ġapplied":6131,"Ġcatch":6132,"Ġtrust":6133,"Ġ1963":6134,"Ġviolence":6135,"Ġneut":6136,"Ġscientific":6137,"insula":6138,"Ġ81":6139,"ĠArts":6140,"Ġentrance":6141,"Ġcoastal":6142,"othes":6143,"ĠPass":6144,"Ġtick":6145,"iege":6146,"Ġhits":6147,"tical":6148,"Ġconsequ":6149,"avig":6150,"Ġ98":6151,"Ġexclus":6152,"Ġsynt":6153,"ĠGreg":6154,"Ġsculpt":6155,"Ġpatrol":6156,"Ġbattery":6157,"math":6158,"ĠFire":6159,"Ġitems":6160,"ĠAri":6161,"Ġcandidate":6162,"Ġtowns":6163,"lee":6164,"Ġindicated":6165,"ĠBowl":6166,"Ġuns":6167,"Ġgradually":6168,"Ġdistribution":6169,"time":6170,"Ġ1916":6171,"ĠEdu":6172,"Ġpolitics":6173,"lan":6174,"ĠRid":6175,"Ġdelivered":6176,"oard":6177,"Ġstopped":6178,"Ġfilled":6179,"Ġban":6180,"Ġindependence":6181,"Ġtact":6182,"izations":6183,"eke":6184,"Ġsections":6185,"Ġdetails":6186,"pet":6187,"ĠJan":6188,"ĠIG":6189,"ĠConfeder":6190,"ĠMulder":6191,"eless":6192,"Ġcinem":6193,"Ġselect":6194,"Å¡":6195,"Ġcombination":6196,"mun":6197,"Ġ71":6198,"Ġemp":6199,"Ġsupplies":6200,"Ġways":6201,"Ġglass":6202,"Ġparties":6203,"ender":6204,"ÅĤ":6205,"Ġstream":6206,"Ġengines":6207,"ushing":6208,"Ġprisoners":6209,"Ġcamera":6210,"ĠGordon":6211,"Ġappeal":6212,"ĠStadium":6213,"ĠAC":6214,"ĠBand":6215,"Ġ1919":6216,"Ġregister":6217,"ĠRhodes":6218,"Ġcampus":6219,"Ġbask":6220,"emies":6221,"ĠWell":6222,"Ġ1962":6223,"Ġacts":6224,"Ġmig":6225,"ĠBon":6226,"Ġextremely":6227,"Ġ89":6228,"Ġentitled":6229,"Ġsecure":6230,"reets":6231,"rec":6232,"ela":6233,"ĠRa":6234,"Ġfinding":6235,"AT":6236,"Ġonline":6237,"Ġdecade":6238,"inois":6239,"ĠUnivers":6240,"Ġtal":6241,"ĠProf":6242,"poration":6243,"iques":6244,"ĠTheatre":6245,"acter":6246,"Ġwinner":6247,"ĠStaff":6248,"iversary":6249,"Ġ82":6250,"Ġarc":6251,"ropol":6252,"Ġevening":6253,"ĠCop":6254,"Ġregiment":6255,"Ġ1938":6256,"ĠKim":6257,"Ġinvestigation":6258,"Ġ88":6259,"Ġthreatened":6260,"Ġbought":6261,"Ġmessage":6262,"Ġadapted":6263,"Ġsomew":6264,"Ġsurvived":6265,"Ġknots":6266,"Ġconsum":6267,"Ġstudied":6268,"ĠBir":6269,"ĠAnth":6270,"Ġproposal":6271,"ador":6272,"Ġwrites":6273,"Ġaddress":6274,"ashed":6275,"ĠVill":6276,"Ġdeaths":6277,"ĠJustice":6278,"iat":6279,"Ġroutes":6280,"Ġwars":6281,"ja":6282,"Ġdownload":6283,"Ġruled":6284,"Ġfear":6285,"ĠNic":6286,"ĠInstead":6287,"Ġrelief":6288,"Ġreligion":6289,"Ġmales":6290,"Ġreduce":6291,"Ġvoted":6292,"BS":6293,"ighters":6294,"ieval":6295,"ano":6296,"Ġrevolution":6297,"Ġspecifically":6298,"Ġspons":6299,"Ġcrown":6300,"Ġphase":6301,"met":6302,"Ġduty":6303,"Ġfict":6304,"phoon":6305,"Ġkingdom":6306,"ĠAge":6307,"Ġrecalled":6308,"bourne":6309,"Ġec":6310,"Ġportrayed":6311,"Ġsoul":6312,"Ġimplement":6313,"ctions":6314,"ĠCirc":6315,"Ġcontroversy":6316,"Ġemerg":6317,"ĠHere":6318,"ĠMemorial":6319,"hat":6320,"Ġcauses":6321,"BN":6322,"ĠAst":6323,"ervative":6324,"Ġet":6325,"Ġble":6326,"Ġ1956":6327,"Ġeverything":6328,"Ġbreeding":6329,"apes":6330,"adow":6331,"chers":6332,"aug":6333,"Ġsell":6334,"Ġstret":6335,"Ġ130":6336,"Ġreferences":6337,"Ġ175":6338,"ician":6339,"Ġbottom":6340,"Ġago":6341,"Ġcapable":6342,"ĠTony":6343,"Ġconvin":6344,"Ġteacher":6345,"Ġimportance":6346,"ĠPo":6347,"ĠColl":6348,"Ġentry":6349,"Ġmeters":6350,"ĠMcK":6351,"ĠSingles":6352,"Ġoffers":6353,"ĠId":6354,"ĠNel":6355,"ĠKong":6356,"Ġtanks":6357,"ĠOd":6358,"Ġ79":6359,"senal":6360,"ĠPower":6361,"bro":6362,"ĠUr":6363,"Ġsufficient":6364,"ĠDirector":6365,"entially":6366,"Ġowner":6367,"Ġinternal":6368,"Ġarrested":6369,"Ġopera":6370,"ridges":6371,"ĠAdams":6372,"Ġadmitted":6373,"Ġnomination":6374,"arp":6375,"ĠOk":6376,"Ġcorner":6377,"Ġbor":6378,"ĠJord":6379,"ĠMoon":6380,"Ġcopy":6381,"ĠAlan":6382,"Ġ1936":6383,"ĠFA":6384,"Ġcrossed":6385,"Ġclimb":6386,"Ġproducts":6387,"ĠDougl":6388,"wich":6389,"uro":6390,"ĠCritical":6391,"bar":6392,"Ġinstalled":6393,"Ġequipped":6394,"ĠBeach":6395,"ĠAlf":6396,"ĠIGN":6397,"Ġpreced":6398,"Ġconcerns":6399,"aki":6400,"Ġmort":6401,"Ġoverse":6402,"Ġautom":6403,"ĠHamilton":6404,"Ġinvited":6405,"ĠSimon":6406,"ĠMaria":6407,"ĠEngine":6408,"Ġconvoy":6409,"Ġones":6410,"Ġconqu":6411,"Ġinterested":6412,"Ġstarts":6413,"ĠAdam":6414,"Ġcrime":6415,"Ġprincipal":6416,"Ġfly":6417,"ĠGram":6418,"Ġacid":6419,"ranean":6420,"Ġtell":6421,"ĠYour":6422,"Ġrecommended":6423,"hr":6424,"Ġalt":6425,"andy":6426,"ĠJane":6427,"Ġunl":6428,"ructure":6429,"ĠPlot":6430,"Ġremainder":6431,"Ġmedal":6432,"Ġshut":6433,"ansas":6434,"Ġactual":6435,"ca":6436,"Ġsnow":6437,"Ġretreat":6438,"ĠUTC":6439,"Ġstock":6440,"Ġvent":6441,"Ġupgrad":6442,"espread":6443,"Ġcharged":6444,"ĠVII":6445,"Ġsolid":6446,"Ġapart":6447,"ĠBos":6448,"Ġprice":6449,"Ġfunds":6450,"Ġobjects":6451,"ĠCart":6452,"Ġdoor":6453,"ĠTrack":6454,"Ġ1961":6455,"ĠForest":6456,"osaurus":6457,"ilation":6458,"Ġcomposer":6459,"vis":6460,"Ġ84":6461,"Ġfemales":6462,"ĠVideo":6463,"Ġconsisting":6464,"Ġgall":6465,"aked":6466,"Ġpromote":6467,"ĠDeath":6468,"Ġpage":6469,"Ġmilit":6470,"iy":6471,"ĠNBA":6472,"ĠIndones":6473,"Ġconsiderable":6474,"mb":6475,"ĠFound":6476,"ĠProg":6477,"Ġdates":6478,"Ġpoly":6479,"ĠInt":6480,"iller":6481,"hus":6482,"ĠNether":6483,"ĠGen":6484,"Ġ1953":6485,"Ġtypical":6486,"Ġgrounds":6487,"ĠKennedy":6488,"erted":6489,"ĠGun":6490,"Ġcorrect":6491,"ĠToday":6492,"Ġduties":6493,"Ġextension":6494,"Ġblow":6495,"cks":6496,"rete":6497,"Ġevolution":6498,"Ġ93":6499,"Ġsomeone":6500,"ĠTransport":6501,"Ġcong":6502,"Ġrural":6503,"Ġpenal":6504,"ĠMilitary":6505,"ĠSunday":6506,"Ġeighth":6507,"BI":6508,"vements":6509,"ĠIndiana":6510,"Ġspin":6511,"Ġsole":6512,"ĠProject":6513,"Ġhotel":6514,"ĠHoward":6515,"osite":6516,"Ġdecades":6517,"ĠNorwe":6518,"king":6519,"Ġimages":6520,"ĠPit":6521,"Ġdriving":6522,"Ġreading":6523,"Ġidentity":6524,"ĠScully":6525,"ĠHou":6526,"Ġzone":6527,"ĠMarc":6528,"add":6529,"Ġoccurs":6530,"hetic":6531,"ĠLeon":6532,"Ġmanner":6533,"ĠBry":6534,"Ġsubs":6535,"Ġskin":6536,"Ġchallenge":6537,"ĠHitler":6538,"Ġlane":6539,"Ġremix":6540,"Ġtow":6541,"ĠKat":6542,"Ġaspects":6543,"Ġpermanent":6544,"Ġaer":6545,"ĠTar":6546,"Ġbrigade":6547,"ĠTa":6548,"Ġfrag":6549,"Ġ1947":6550,"Ġvolcan":6551,"Ġdated":6552,"Ġham":6553,"Ġ1958":6554,"ĠCult":6555,"ĠFive":6556,"ĠGill":6557,"Ġvir":6558,"ĠPortug":6559,"Ġnoting":6560,"Ġrestaur":6561,"ĠBrist":6562,"Ġcolour":6563,"ez":6564,"after":6565,"ione":6566,"ĠDrag":6567,"ubb":6568,"Ġsupporters":6569,"ĠWWE":6570,"Ġslowly":6571,"Ġclean":6572,"ĠBa":6573,"Ġposted":6574,"ĠPear":6575,"Ġ86":6576,"ensus":6577,"ĠTurk":6578,"ivals":6579,"ĠRose":6580,"iley":6581,"Ġ1957":6582,"Ġ1910":6583,"veland":6584,"cknow":6585,"ĠScience":6586,"Ġdescribing":6587,"ĠResearch":6588,"Ġinvolving":6589,"Ġ110":6590,"Ġspeak":6591,"Ġvessels":6592,"Ġentering":6593,"Ġenemies":6594,"Ġ1937":6595,"ĠAssembly":6596,"Ġdress":6597,"Ġequivalent":6598,"aware":6599,"ĠRyan":6600,"ĠHug":6601,"Ġclasses":6602,"Ġbra":6603,"Ġdebate":6604,"Ġsettled":6605,"nic":6606,"Ġdin":6607,"ĠAk":6608,"Ġdepartment":6609,"Ġobtained":6610,"ĠConstitution":6611,"regon":6612,"Ġaccur":6613,"Ġarmor":6614,"Ġparliament":6615,"ĠRolling":6616,"ĠDisc":6617,"erto":6618,"ĠMagazine":6619,"Ġtele":6620,"ĠMountain":6621,"ĠArgent":6622,"Ġsongwrit":6623,"Ġbasic":6624,"risis":6625,"Ġpurchase":6626,"agues":6627,"fl":6628,"Ġpup":6629,"Ġfolk":6630,"Ġnest":6631,"Ġoldest":6632,"ĠCleveland":6633,"Ġfaith":6634,"ĠSpace":6635,"ĠPier":6636,"ĠLenn":6637,"Ġconcerned":6638,"Ġdeparture":6639,"Ġwidespread":6640,"Ġdecline":6641,"Ġformal":6642,"Ġconnection":6643,"ĠIllinois":6644,"cation":6645,"ophy":6646,"Ġincome":6647,"Ġattached":6648,"hered":6649,"Ġrecognition":6650,"ĠNow":6651,"Ġinteg":6652,"ĠDouglas":6653,"Ġmemorial":6654,"Ġouter":6655,"ĠThroughout":6656,"Ġcertified":6657,"heastern":6658,"Ġdeleg":6659,"Ġaccused":6660,"Ġsequel":6661,"Ġ<":6662,"orney":6663,"ĠWeekly":6664,"Ġderived":6665,"Ġdecor":6666,"ĠSav":6667,"rates":6668,"Ġmode":6669,"ĠIra":6670,"Ġha":6671,"ĠStand":6672,"ĠRele":6673,"aret":6674,"ĠAndy":6675,"Ġwearing":6676,"ĠJordan":6677,"Ġhip":6678,"Ġassumed":6679,"Ġdisturb":6680,"Ġswim":6681,"icit":6682,"western":6683,"Ġwed":6684,"ĠOregon":6685,"Ġ1959":6686,"Ġacknow":6687,"ĠStanley":6688,"Ġtorn":6689,"ĠFreder":6690,"ĠâĢĿ":6691,"Ġacclaim":6692,"ooth":6693,"Ġsurvey":6694,"Ġcommitted":6695,"iot":6696,"Ġfoss":6697,"ĠArsenal":6698,"ĠMedia":6699,"ĠFeder":6700,"Ġhosted":6701,"RA":6702,"ĠThird":6703,"Ġreturns":6704,"Ġvalley":6705,"Ġsegment":6706,"ĠRoger":6707,"Ġsessions":6708,"ekend":6709,"ĠDal":6710,"Ġpopulations":6711,"ĠPhilip":6712,"agonist":6713,"Ġdenied":6714,"Ġfine":6715,"ĠMediter":6716,"ĠTreat":6717,"ĠRecording":6718,"Ġtemple":6719,"ĠFamily":6720,"Ġhang":6721,"wan":6722,"Ġchampion":6723,"Ġflo":6724,"ĠBeatles":6725,"Ġcharges":6726,"ĠTenn":6727,"ĠLow":6728,"Ġliterary":6729,"ĠBruce":6730,"ĠKevin":6731,"Ġcanc":6732,"Ġregional":6733,"Ġthousands":6734,"ĠNorwegian":6735,"Ġ1954":6736,"Ġterminus":6737,"Ġtransition":6738,"Ġ1955":6739,"ĠMediterranean":6740,"Ġcircum":6741,"iva":6742,"Ġsupposed":6743,"Ġwarm":6744,"Ġwickets":6745,"ĠBristol":6746,"ĠâĢľ":6747,"Ġdemand":6748,"ĠEs":6749,"ĠDig":6750,"Ġans":6751,"ĠAz":6752,"Ġshots":6753,"hedral":6754,"ĠISBN":6755,"ĠRain":6756,"udden":6757,"Ġstrongly":6758,"heme":6759,"achel":6760,"Ġcirculation":6761,"ĠBush":6762,"Ġintelligence":6763,"Ġsailed":6764,"Ġpossibility":6765,"Ġpassengers":6766,"Ġgeneration":6767,"IA":6768,"Ġhope":6769,"Ġfictional":6770,"emed":6771,"Ġanimated":6772,"Ġthirty":6773,"Ġfreedom":6774,"Ġdowntown":6775,"ĠHo":6776,"ĠChannel":6777,"organ":6778,"ĠFederal":6779,"eing":6780,"ito":6781,"Ġhill":6782,"Ġrich":6783,"Ġminister":6784,"Ġbehavior":6785,"Ġcloud":6786,"ĠMexican":6787,"rage":6788,"ĠÃĹ":6789,"CA":6790,"Ġassistance":6791,"Ġreplacement":6792,"Ġbegun":6793,"ĠPur":6794,"Ġfruit":6795,"ami":6796,"Ġcommanded":6797,"ĠWeb":6798,"Ġdestruction":6799,"atinum":6800,"Ġmoves":6801,"mes":6802,"ĠBol":6803,"Ġcriminal":6804,"char":6805,"Ġmissed":6806,"Ġmissions":6807,"ĠConc":6808,"Ġcosts":6809,"Ġexception":6810,"ĠDer":6811,"Ġcrash":6812,"orced":6813,"ĠRow":6814,"upt":6815,"Ġhighlight":6816,"Ġbringing":6817,"Ġtied":6818,"ĠMaster":6819,"ĠCas":6820,"lig":6821,"ĠEric":6822,"Ġcommit":6823,"isms":6824,"ĠKorea":6825,"ĠWithin":6826,"Ġintention":6827,"Ġfeeling":6828,"onto":6829,"Ġspeaking":6830,"ĠBah":6831,"Ġunusual":6832,"ĠLisa":6833,"oral":6834,"elsh":6835,"ĠAdditionally":6836,"ĠFame":6837,"Ġintercept":6838,"Ġfinishing":6839,"Ġalleged":6840,"lets":6841,"ĠNar":6842,"Ġdemol":6843,"Ġproperties":6844,"Ġincorporated":6845,"Ġopposite":6846,"Ġstayed":6847,"ĠSab":6848,"Ġattributed":6849,"Ġshop":6850,"ĠPhill":6851,"Ġvolunte":6852,"Ġrecovered":6853,"borne":6854,"Ġsons":6855,"ĠColor":6856,"Ġbreaking":6857,"Ġemerged":6858,"Ġ83":6859,"Ġserves":6860,"Ġ1952":6861,"Ġatmosphere":6862,"ĠMorgan":6863,"ĠMorris":6864,"Ġdipl":6865,"Ġchorus":6866,"Ġtheatre":6867,"ĠNorman":6868,"Ġoccasionally":6869,"rating":6870,"Ġdriven":6871,"othing":6872,"olec":6873,"ĠScient":6874,"aire":6875,"ĠEle":6876,"Ġstrateg":6877,"ĠRobinson":6878,"ĠKr":6879,"enses":6880,"umin":6881,"ĠEver":6882,"riers":6883,"Ġclassic":6884,"Ġspok":6885,"Ġready":6886,"ĠPrior":6887,"Ġeffectively":6888,"Ġregularly":6889,"aza":6890,"Ġcavalry":6891,"Ġ92":6892,"Ġestablishment":6893,"ĠSky":6894,"Ġprey":6895,"Ġcourts":6896,"Ġmethods":6897,"ĠRaj":6898,"Ġsounds":6899,"thm":6900,"Ġvary":6901,"Ġ1933":6902,"oslav":6903,"ĠHawai":6904,"Ġdivers":6905,"ogen":6906,"ĠTelevision":6907,"Ġsuperv":6908,"ĠSimilar":6909,"Ġ176":6910,"don":6911,"pective":6912,"Ġdream":6913,"ĠAround":6914,"Ġcompletion":6915,"Ġshore":6916,"ĠUnlike":6917,"Ġmaterials":6918,"ĠCE":6919,"ĠConstruction":6920,"ĠGh":6921,"uty":6922,"Ġresponsibility":6923,"Ġdissip":6924,"Ġwarning":6925,"ĠUSA":6926,"Ġaccommod":6927,"wen":6928,"ĠCab":6929,"ĠFinn":6930,"Ġheat":6931,"Ġattracted":6932,"Ġfields":6933,"Ġsurviving":6934,"Ġprovince":6935,"Ġentertain":6936,"Ġpersu":6937,"ĠNelson":6938,"ĠIron":6939,"rim":6940,"Ġglobal":6941,"nold":6942,"ece":6943,"ĠNich":6944,"ĠFrancis":6945,"Ġmo":6946,"Ġquant":6947,"Ġclassified":6948,"Ġkid":6949,"sole":6950,"Ġdifferences":6951,"ĠPremier":6952,"ĠDE":6953,"ĠLanc":6954,"icks":6955,"Ġdivisions":6956,"Ġtechnical":6957,"vens":6958,"ĠSweden":6959,"Ġinterpret":6960,"Ġbrain":6961,"Ġ1935":6962,"ban":6963,"ĠFord":6964,"ĠTechn":6965,"Ġcruiser":6966,"ĠPatrick":6967,"ĠBudd":6968,"ipe":6969,"Ġpassage":6970,"emeter":6971,"abled":6972,"ĠAnton":6973,"Ġaboard":6974,"Ġnone":6975,"ĠMit":6976,"inton":6977,"Ġsam":6978,"oyd":6979,"ĠPA":6980,"ĠTemple":6981,"weight":6982,"Ġclubs":6983,"Ġstood":6984,"Ġassociation":6985,"Ġratings":6986,"Ġneither":6987,"Ġeleven":6988,"Ġmusicians":6989,"Ġrooms":6990,"nce":6991,"Ġ1951":6992,"Ġ1949":6993,"Ġmedic":6994,"Ġreinforce":6995,"idden":6996,"omot":6997,"ĠHell":6998,"Ġdesire":6999,"nings":7000,"Ġhal":7001,"Ġseparated":7002,"ĠToronto":7003,"ĠWelsh":7004,"Ġclimate":7005,"ĠAnne":7006,"agle":7007,"Ġsqu":7008,"ĠNations":7009,"Ġshif":7010,"Ġoutbreak":7011,"Ġclassification":7012,"Ġancest":7013,"ĠDog":7014,"Ã³n":7015,"Ġvehicle":7016,"ĠMarg":7017,"Ġreality":7018,"Ġpredecess":7019,"Ġseemed":7020,"ĠByzantine":7021,"Ġchemical":7022,"Ġvotes":7023,"Ġpicture":7024,"teenth":7025,"ĠAllen":7026,"Ġbattleships":7027,"Ġrose":7028,"ĠChron":7029,"Ġmemory":7030,"Ġhoped":7031,"ici":7032,"ĠProfess":7033,"ji":7034,"Ġmovements":7035,"Ġment":7036,"Ġrequested":7037,"ĠOpen":7038,"ĠNetherlands":7039,"ĠJournal":7040,"ĠBelg":7041,"ogy":7042,"Ġraise":7043,"Ġhistorians":7044,"Ġille":7045,"ĠEvery":7046,"ĠMatthew":7047,"ĠSn":7048,"ĠPow":7049,"burn":7050,"Ġmap":7051,"Ġdifficulty":7052,"reck":7053,"Ġbasketball":7054,"inder":7055,"ĠWhe":7056,"ewhere":7057,"ige":7058,"Ġexpect":7059,"Ġvide":7060,"abil":7061,"Ġcommunities":7062,"Ġrestored":7063,"Ġraid":7064,"Ġteen":7065,"Ġremember":7066,"ĠBang":7067,"ĠSports":7068,"Ġprogramme":7069,"ĠJews":7070,"Ġpremiere":7071,"Ġpure":7072,"ĠDean":7073,"har":7074,"Ġfal":7075,"Ġdelayed":7076,"ĠJacob":7077,"Ġfer":7078,"Ġrelative":7079,"Ġinspiration":7080,"ĠSax":7081,"Ġdiscovery":7082,"Ġgal":7083,"Ġotherwise":7084,"Ġgreatly":7085,"ĠUSS":7086,"Ġanniversary":7087,"Ġinjuries":7088,"ĠDesign":7089,"ĠAgain":7090,"Ġneighbor":7091,"Ġaccounts":7092,"Ġsatisf":7093,"hire":7094,"Ġfunding":7095,"Ġsurrounded":7096,"Ġflank":7097,"ĠDomin":7098,"Ġdepict":7099,"Ġpraise":7100,"ĠUlt":7101,"Ġpenalty":7102,"Ġspoke":7103,"ilers":7104,"Ġbatting":7105,"Ġneeds":7106,"Ġ1900":7107,"ĠIraq":7108,"iate":7109,"Ġdens":7110,"Ġstrate":7111,"Ġdie":7112,"Ġpartner":7113,"Ġcrop":7114,"ĠWright":7115,"ĠMarine":7116,"Ġmassive":7117,"Ġweapon":7118,"Ġphotograph":7119,"Ġrecru":7120,"Ġclaiming":7121,"Ġcra":7122,"ĠDor":7123,"anth":7124,"ĠBishop":7125,"Ġsuit":7126,"Ġassemb":7127,"Ġlat":7128,"Ġastron":7129,"Ġtries":7130,"Ġforming":7131,"Ġstrategy":7132,"Ġwrong":7133,"real":7134,"Ġlegend":7135,"ĠOak":7136,"Ġaccompl":7137,"Ġdocumentary":7138,"ĠArmen":7139,"Ġfled":7140,"Ġcrosses":7141,"ĠGlob":7142,"Ġworst":7143,"ĠHop":7144,"ĠCroatian":7145,"ĠHeart":7146,"ĠDa":7147,"Ġstands":7148,"gets":7149,"ĠThompson":7150,"Ġarchitecture":7151,"Ġash":7152,"ĠLast":7153,"uther":7154,"Ġtemporary":7155,"ĠJam":7156,"Ġgirls":7157,"uble":7158,"Ġdetermine":7159,"Ġchairman":7160,"ĠDick":7161,"ĠRussell":7162,"Ġdismissed":7163,"aired":7164,"ĠIslam":7165,"Ġinvolvement":7166,"ĠStra":7167,"Ġbombard":7168,"Ġsale":7169,"Ġcategory":7170,"ĠTrib":7171,"Ġrot":7172,"formula":7173,"Ġplane":7174,"ĠCentre":7175,"Ġinner":7176,"Ġremn":7177,"Ġadaptation":7178,"ĠMars":7179,"Ġhear":7180,"rum":7181,"onds":7182,"going":7183,"Ġensure":7184,"Ġconvinced":7185,"Ġsight":7186,"Ġenf":7187,"lyn":7188,"Ġcul":7189,"ĠNC":7190,"Ġweekend":7191,"Ġ06":7192,"ĠHoly":7193,"ĠNFL":7194,"ĠPuerto":7195,"ĠFront":7196,"Ġresources":7197,"Ġsomewhat":7198,"Ġreserv":7199,"ĠCarter":7200,"Ġinterests":7201,"ĠWinter":7202,"ĠRick":7203,"wing":7204,"Ġscheme":7205,"Ġmedieval":7206,"Ġimmediate":7207,"ĠKelly":7208,"ĠHend":7209,"Ġstreets":7210,"agre":7211,"Ġpresidential":7212,"ĠModern":7213,"Ġlibrary":7214,"ĠKer":7215,"Ġray":7216,"oster":7217,"Ġcarbon":7218,"Ġabsor":7219,"Ġconsp":7220,"ĠCooper":7221,"body":7222,"Ġic":7223,"ĠSpe":7224,"itzer":7225,"po":7226,"Ġfalling":7227,"Ġcolonial":7228,"ĠDra":7229,"ĠAlong":7230,"Ġtechniques":7231,"Ġori":7232,"Ġclassical":7233,"Ġsed":7234,"Ġfighter":7235,"Ġninth":7236,"ĠNiel":7237,"ĠRang":7238,"Ġappropri":7239,"Ġthrone":7240,"ĠGard":7241,"Ġstarred":7242,"Ġeggs":7243,"ĠBrother":7244,"Ġacademic":7245,"ĠFree":7246,"ĠNetwork":7247,"Ġraces":7248,"Ġbright":7249,"icide":7250,"aya":7251,"Ġadults":7252,"ĠPak":7253,"Ġconvent":7254,"Ġcommemor":7255,"Ġpassenger":7256,"Ã±":7257,"Ġsurviv":7258,"Ġloyal":7259,"ĠHungarian":7260,"ĠNob":7261,"Ġmeets":7262,"Ġlake":7263,"night":7264,"ĠWy":7265,"ĠGri":7266,"Ġreviewer":7267,"ester":7268,"Ġalien":7269,"ĠThus":7270,"Ġ1913":7271,"Ġpremiered":7272,"Ġsubmarine":7273,"rine":7274,"ĠBou":7275,"Ġabsence":7276,"ĠBatman":7277,"bec":7278,"wealth":7279,"Ġseeing":7280,"Ġrenew":7281,"á»":7282,"Ġfitted":7283,"ĠLabor":7284,"Ġelse":7285,"Ġsuperior":7286,"osure":7287,"Ġinterior":7288,"arsh":7289,"Ġfavorite":7290,"ĠParker":7291,"Ġengineer":7292,"ronze":7293,"Ġdub":7294,"PA":7295,"ĠEst":7296,"Ġairport":7297,"Ġpartn":7298,"ĠTok":7299,"Ġdeemed":7300,"Ġattacking":7301,"ĠHarris":7302,"omp":7303,"Ġconclusion":7304,"Ġappearing":7305,"acent":7306,"Ġvisible":7307,"ĠBi":7308,"Ġ1926":7309,"Ġdating":7310,"ivan":7311,"Ġsynthes":7312,"using":7313,"Ġcharacteristics":7314,"Ġromantic":7315,"Ġx":7316,"Ġleads":7317,"Ġelections":7318,"Ġrum":7319,"Ġoperate":7320,"Ġfacility":7321,"Ġencouraged":7322,"Ġ1927":7323,"Ġmunicip":7324,"ĠLibrary":7325,"Ġafterwards":7326,"Ġretirement":7327,"ĠDNA":7328,"Ġlanded":7329,"book":7330,"Ġcolony":7331,"Ġconvection":7332,"ĠMurray":7333,"Ġtemperatures":7334,"Ġbuy":7335,"Ġ1921":7336,"Ġeveryone":7337,"chang":7338,"ĠAI":7339,"Ġdoct":7340,"oen":7341,"Ġsuffering":7342,"Ġcredit":7343,"Ġ1934":7344,"Ġlegislation":7345,"Ġholds":7346,"ĠKnight":7347,"Ġmodified":7348,"Ġlies":7349,"Ġchalleng":7350,"ĠEducation":7351,"ĠTs":7352,"ĠLate":7353,"aver":7354,"Ġpainted":7355,"Ġcontroversial":7356,"Ġwings":7357,"eor":7358,"Ġsan":7359,"Ġgone":7360,"ĠâĤ":7361,"ania":7362,"roit":7363,"ossible":7364,"ĠHouston":7365,"Ġbelieves":7366,"ixon":7367,"Ġcode":7368,"urches":7369,"Ġdistributed":7370,"Ġod":7371,"ĠBrand":7372,"ĠCommander":7373,"Ġattempting":7374,"Ġ08":7375,"ĠPolice":7376,"asure":7377,"ĠBerlin":7378,"ĠPalace":7379,"uster":7380,"Ġstandards":7381,"Ġlooked":7382,"Ġrescue":7383,"Ġ900":7384,"Ġauthors":7385,"Ġsecured":7386,"ĠAdvent":7387,"Ġmonarch":7388,"Ġdepicted":7389,"Ġ1912":7390,"tic":7391,"ĠUt":7392,"Ġcancer":7393,"Ġarchae":7394,"Ġdominated":7395,"ĠFI":7396,"Ġbattleship":7397,"ache":7398,"Ġgrass":7399,"Ġhabitat":7400,"ĠÅ":7401,"Ġanyone":7402,"scape":7403,"apse":7404,"ĠYug":7405,"Ġcontinuing":7406,"coming":7407,"Ġjudge":7408,"Ġwel":7409,"Ġlongest":7410,"Ġimmig":7411,"ĠStory":7412,"ĠSanta":7413,"eline":7414,"aws":7415,"Ġbiggest":7416,"ĠSwedish":7417,"li":7418,"ĠCommonwealth":7419,"Ġunsuccessful":7420,"Ġunion":7421,"Ġgraphics":7422,"ĠGet":7423,"Ġpound":7424,"encies":7425,"Ġneck":7426,"Ġobtain":7427,"ĠLi":7428,"ĠSimpson":7429,"ĠRoberts":7430,"Ġtrained":7431,"ĠOt":7432,"ĠYan":7433,"Ġsudden":7434,"Ġwins":7435,"ĠHospital":7436,"Ġ1932":7437,"ultane":7438,"inals":7439,"ĠObs":7440,"Ġjump":7441,"Ġarrangement":7442,"Ġcarrier":7443,"aska":7444,"Ġrailroad":7445,"owa":7446,"ĠIndians":7447,"ĠEy":7448,"Ġacknowled":7449,"ĠLyn":7450,"ĠSilver":7451,"Ġnickn":7452,"ĠMort":7453,"oming":7454,"opes":7455,"Ġinformed":7456,"Ġmeasures":7457,"eenth":7458,"ĠCook":7459,"hess":7460,"ĠRAAF":7461,"Ġbelt":7462,"Ġrepresenting":7463,"emetery":7464,"Ġreleases":7465,"ĠCorporation":7466,"Ġachieve":7467,"ĠSocial":7468,"ĠNBC":7469,"ĠWarner":7470,"ternal":7471,"ching":7472,"Ġsees":7473,"Ġ09":7474,"ĠMerc":7475,"Ġgarrison":7476,"ĠYugoslav":7477,"Ġconvention":7478,"ture":7479,"una":7480,"Ġformerly":7481,"ĠJason":7482,"Ġgrade":7483,"Ġbab":7484,"Ġgenerated":7485,"Ġstyles":7486,"Ġcloser":7487,"Ġdeployed":7488,"Ġemergency":7489,"ĠAnthony":7490,"Ġbats":7491,"Ġalleg":7492,"tenance":7493,"elle":7494,"Ġquestions":7495,"olph":7496,"Ġmoderate":7497,"fare":7498,"Ġhistoric":7499,"Ġgets":7500,"Ġveter":7501,"Ġtrials":7502,"Ġfestival":7503,"Ġcycle":7504,"Ġmolec":7505,"hemat":7506,"Ġster":7507,"Ġsiege":7508,"Ġinfluential":7509,"ĠCru":7510,"Ġemotional":7511,"ĠHin":7512,"ĠCroatia":7513,"ĠDetroit":7514,"ĠTal":7515,"otype":7516,"Ġowners":7517,"Ġnovels":7518,"uts":7519,"agu":7520,"ĠRAF":7521,"Ġsuccessor":7522,"Ġinfluences":7523,"Ġnarrative":7524,"ĠGaga":7525,"Ġ1929":7526,"aria":7527,"ĠBure":7528,"Ġthin":7529,"ĠChamber":7530,"aints":7531,"Ġstead":7532,"Ġru":7533,"Ġ1911":7534,"Ġeat":7535,"Ġexcess":7536,"Ġjournalist":7537,"ĠAuthor":7538,"Ġchildhood":7539,"ĠGilbert":7540,"Ġconstant":7541,"Ġexperiences":7542,"mate":7543,"Ġpregn":7544,"Ġdefended":7545,"Ġveget":7546,"Ġdiscussed":7547,"ĠPrincess":7548,"Ġlegs":7549,"Ġapparently":7550,"Ġalco":7551,"Ġinstruments":7552,"ĠRap":7553,"Ġassass":7554,"ĠSpears":7555,"Ġ140":7556,"Ġvictims":7557,"Ġtreated":7558,"Ġgiant":7559,"ĠPC":7560,"Ġenvironmental":7561,"Ġdiplom":7562,"fire":7563,"arked":7564,"Ġexecuted":7565,"imore":7566,"Ġdetail":7567,"ĠAsian":7568,"Ġcoins":7569,"Ġ1931":7570,"Ġ1922":7571,"Ġdepos":7572,"anny":7573,"Ġoffices":7574,"obi":7575,"Ġfactors":7576,"30":7577,"Ġmine":7578,"ĠJesus":7579,"yard":7580,"usted":7581,"iens":7582,"Ġbear":7583,"Ġconcur":7584,"rams":7585,"ĠDesc":7586,"achment":7587,"Ġenters":7588,"Ġhunting":7589,"ĠSomers":7590,"Ġwooden":7591,"ĠMelbourne":7592,"noon":7593,"ĠEvans":7594,"ĠNielsen":7595,"ĠPope":7596,"ĠAtlant":7597,"aste":7598,"Ġchannel":7599,"Ġhundreds":7600,"Ġride":7601,"ĠVice":7602,"Ġresigned":7603,"ĠGuy":7604,"DS":7605,"Ġocean":7606,"rot":7607,"ĠClinton":7608,"ĠXbox":7609,"iliar":7610,"Ġgay":7611,"Ġuniform":7612,"ĠMun":7613,"Ġskills":7614,"ĠBed":7615,"Ġnavig":7616,"ĠOrgan":7617,"Ġreveals":7618,"alo":7619,"ĠNevertheless":7620,"Ġspend":7621,"Ġchapter":7622,"ĠCategory":7623,"Ġpointed":7624,"Ġenh":7625,"Ġridge":7626,"text":7627,"Ġclim":7628,"ES":7629,"orous":7630,"ĠWing":7631,"Ġwatching":7632,"ĠStewart":7633,"Ġbon":7634,"Ġprevented":7635,"usic":7636,"ĠMuslim":7637,"Ġ05":7638,"Ġpreferred":7639,"lie":7640,"utt":7641,"ĠReal":7642,"rees":7643,"Ġpushed":7644,"Ġpull":7645,"Ġformat":7646,"icians":7647,"Ġlocomot":7648,"Ġfootage":7649,"Ġflew":7650,"Ġlanguages":7651,"ĠHeavy":7652,"Ġdifference":7653,"Ġopponents":7654,"Ġhappened":7655,"ĠTower":7656,"Ġformally":7657,"Ġthereafter":7658,"Ġdrums":7659,"Ġintent":7660,"Ġreportedly":7661,"Ġcheck":7662,"itter":7663,"Ġfacing":7664,"ĠBenn":7665,"Ġresign":7666,"Ġrelationships":7667,"Ġaccomp":7668,"ĠOrigin":7669,"Ġchain":7670,"Ġintense":7671,"ĠCarib":7672,"Ġthousand":7673,"ĠBulgar":7674,"ĠTurkish":7675,"Ġhanded":7676,"ĠSamuel":7677,"ĠExpress":7678,"oto":7679,"tty":7680,"Ġdevice":7681,"Ġnotably":7682,"ĠSarah":7683,"ski":7684,"Ġanimation":7685,"ĠRey":7686,"ĠLim":7687,"ogether":7688,"Ġfiring":7689,"ĠLennon":7690,"Ġvision":7691,"Ġinhabit":7692,"Ġexisted":7693,"Ġvisitors":7694,"ĠBird":7695,"idi":7696,"Ġsurrender":7697,"ĠAud":7698,"Ġgather":7699,"Ġemployees":7700,"ĠGreece":7701,"MA":7702,"ĠBaltimore":7703,"Ġbes":7704,"onies":7705,"Ġ170":7706,"Ġaccompany":7707,"ĠAustria":7708,"ĠQueens":7709,"mad":7710,"ĠAlbums":7711,"roc":7712,"bean":7713,"ĠHans":7714,"ĠArk":7715,"spec":7716,"Ġdeparted":7717,"Ġlinked":7718,"Ġhearing":7719,"Ġexposed":7720,"Ġparticipate":7721,"ds":7722,"Ġpoetry":7723,"Ġdialogue":7724,"stic":7725,"hatt":7726,"da":7727,"Ġextent":7728,"ois":7729,"Ġfil":7730,"ĠStock":7731,"Ġdetailed":7732,"Ġannounce":7733,"olis":7734,"ĠColorado":7735,"Ġsubstantial":7736,"yo":7737,"ican":7738,"Ġlearning":7739,"Ġbeach":7740,"Ġaudio":7741,"ĠCam":7742,"ĠRaw":7743,"Ġinstance":7744,"Ġuniverse":7745,"ĠLane":7746,"ropolitan":7747,"Ġrebell":7748,"Ġcruisers":7749,"Ġresidential":7750,"jo":7751,"unes":7752,"Ġimpressed":7753,"prise":7754,"ĠWriting":7755,"ĠMarshall":7756,"orage":7757,"ĠHorn":7758,"Ġvul":7759,"orial":7760,"Ġperiods":7761,"Ġavo":7762,"ĠInitially":7763,"endment":7764,"ĠCz":7765,"Ġske":7766,"ĠFoundation":7767,"Ġmart":7768,"Ġhuge":7769,"Ġplate":7770,"Ġpublisher":7771,"ullivan":7772,"ĠMalays":7773,"Ġutil":7774,"Ġhat":7775,"Ġtaught":7776,"Ġeasy":7777,"igen":7778,"ĠDave":7779,"Ġafternoon":7780,"Ġenthus":7781,"lock":7782,"ologists":7783,"Ġtempor":7784,"Ġstem":7785,"ĠFrederick":7786,"Ġterritories":7787,"Ġdriver":7788,"Ġimprison":7789,"Ġreviewers":7790,"Ġtesting":7791,"ribed":7792,"ĠErn":7793,"Ġvideos":7794,"boy":7795,"Ġ1928":7796,"ĠWrestling":7797,"opter":7798,"Ġhappy":7799,"Ġupd":7800,"Ġtests":7801,"viation":7802,"ĠBanks":7803,"ĠHaving":7804,"iami":7805,"ĠHorse":7806,"Ġstable":7807,"Ġteeth":7808,"Ġfeud":7809,"Ġreprodu":7810,"Ġsympt":7811,"Ġunderstand":7812,"Ġisolated":7813,"Ġca":7814,"roph":7815,"ogan":7816,"Ġnegotiations":7817,"Ġvessel":7818,"ĠSomerset":7819,"Ġdiameter":7820,"Ġinher":7821,"Ġagents":7822,"Ġsleep":7823,"otes":7824,"Ġpicked":7825,"ĠJess":7826,"atically":7827,"ĠAnna":7828,"Ġ1925":7829,"ĠBuck":7830,"Ġbridges":7831,"ĠKnow":7832,"ĠMario":7833,"Ġgoods":7834,"Ġencountered":7835,"cho":7836,"Ġdangerous":7837,"Ġjunior":7838,"Ġwithdrew":7839,"ĠRelease":7840,"Ġdiagn":7841,"Ġlob":7842,"Ġsimultane":7843,"roke":7844,"Ġaged":7845,"Ġfounder":7846,"Ġreun":7847,"ĠAnglo":7848,"Ġbehavi":7849,"Ġfactor":7850,"Ġnormally":7851,"Ġupgraded":7852,"sea":7853,"ĠGiants":7854,"Ġkeeping":7855,"Ġfur":7856,"ĠMiami":7857,"Ġspecimens":7858,"Ġwindow":7859,"borough":7860,"Ġtie":7861,"Ġpounds":7862,"Ġ1890":7863,"mission":7864,"ĠSeattle":7865,"Ġdeter":7866,"Ġmedium":7867,"Ġsatell":7868,"etime":7869,"Ġrelie":7870,"Ġfrequent":7871,"olas":7872,"Ġsure":7873,"Ġ1924":7874,"Ġcollaps":7875,"Ġethnic":7876,"bridge":7877,"Ġtoll":7878,"Ġmir":7879,"Ġdiet":7880,"idae":7881,"Ġpartly":7882,"ĠChampionships":7883,"ĠPlayer":7884,"ĠExt":7885,"Ġlowest":7886,"Ġcrisis":7887,"Ġprohib":7888,"Ġresear":7889,"Ġengineering":7890,"chen":7891,"ĠTrek":7892,"ĠCall":7893,"Ġapprec":7894,"ĠSoon":7895,"ĠAlab":7896,"Ġoutf":7897,"Ġtraveled":7898,"Ġvic":7899,"ĠCre":7900,"Ġwhereas":7901,"Ġorganizations":7902,"helm":7903,"iable":7904,"Ġproced":7905,"away":7906,"Ġdesigner":7907,"Ġped":7908,"Ġrarely":7909,"Ġlose":7910,"ĠOp":7911,"Ġrefers":7912,"Ġtone":7913,"amese":7914,"ĠHand":7915,"Ġdoesn":7916,"Ġturrets":7917,"usal":7918,"Ġtechnique":7919,"iece":7920,"brid":7921,"Ġinsc":7922,"ĠHuman":7923,"ĠTreaty":7924,"ĠIowa":7925,"gery":7926,"Ġvice":7927,"Ã©e":7928,"Ġorb":7929,"Ġax":7930,"igs":7931,"Ġspending":7932,"Ġfinale":7933,"Ġ07":7934,"Ġcriticised":7935,"Ġadvice":7936,"Ġpermission":7937,"Ġmaintenance":7938,"Ġlad":7939,"ĠML":7940,"Ġplatinum":7941,"ennis":7942,"Ġuncertain":7943,"Ġdifficulties":7944,"Ġphen":7945,"ila":7946,"xual":7947,"ygen":7948,"Ġcomplic":7949,"Ġpartially":7950,"Ġrestric":7951,"Ġpolicies":7952,"ĠAlabama":7953,"ls":7954,"Ġbypass":7955,"Ġpersonality":7956,"Ġagree":7957,"Ġverse":7958,"Ġmainstream":7959,"ĠForces":7960,"Ġcompete":7961,"Ġranking":7962,"Ġindicate":7963,"Ġliqu":7964,"Ġexcell":7965,"ĠDur":7966,"Ġproport":7967,"Ġrecordings":7968,"inction":7969,"ilst":7970,"uscript":7971,"ĠCaribbean":7972,"Ġunn":7973,"oked":7974,"Ġcomments":7975,"FC":7976,"Ġremove":7977,"Ġanticip":7978,"col":7979,"Ġfinals":7980,"ĠNapole":7981,"Ġmamm":7982,"ĠThen":7983,"Ġrefuge":7984,"ĠBuff":7985,"ĠMississ":7986,"Ġsafe":7987,"ĠLawrence":7988,"attered":7989,"Ġconcerts":7990,"Ġ1923":7991,"Ġwindows":7992,"ĠYanke":7993,"ĠCanal":7994,"Ġstrip":7995,"Ġseats":7996,"uda":7997,"Ġrestrict":7998,"Ġmoral":7999,"Ġsymp":8000,"chell":8001,"ĠCharlie":8002,"Ġovers":8003,"Ġmonument":8004,"Ġrates":8005,"Ġjur":8006,"Ġrepair":8007,"Ġextreme":8008,"Ġfalls":8009,"Ġfighters":8010,"ĠAh":8011,"ĠNat":8012,"Ġrecur":8013,"ĠMinnes":8014,"Ġrecommend":8015,"Ġpitched":8016,"ĠBros":8017,"Ġrepresentative":8018,"Ġcovers":8019,"ĠCrown":8020,"Ġalter":8021,"Ġtruth":8022,"ĠSenator":8023,"ĠMcD":8024,"Ġtenth":8025,"enh":8026,"Ġdiff":8027,"ĠMach":8028,"Ġprompted":8029,"power":8030,"isd":8031,"Ġforcing":8032,"rang":8033,"Ġdescribe":8034,"Ġprotest":8035,"Ġhockey":8036,"ĠCR":8037,"ĠIan":8038,"Ġphr":8039,"Ġtub":8040,"ĠMinistry":8041,"Ġreconst":8042,"Ġshear":8043,"Ġdestroyers":8044,"Ar":8045,"mates":8046,"Ġminimum":8047,"sk":8048,"Ġunderw":8049,"ĠMP":8050,"ĠBrig":8051,"ĠGarden":8052,"ĠTownship":8053,"Ġpric":8054,"Ġhull":8055,"ĠHu":8056,"Ġchurches":8057,"Ġneighborhood":8058,"ifer":8059,"ĠDead":8060,"Ġfriendly":8061,"ĠGrammy":8062,"Ġbases":8063,"Ġboys":8064,"Ġexamples":8065,"ĠUSD":8066,"ĠÃĨ":8067,"ĠHealth":8068,"ĠBlood":8069,"ĠHungary":8070,"urance":8071,"Ġdrawing":8072,"ĠCountry":8073,"ĠPolit":8074,"ĠNazi":8075,"Ġpin":8076,"ĠBenj":8077,"Ġtravelled":8078,"mers":8079,"ĠBan":8080,"Ġbombers":8081,"Ġinaug":8082,"Ġdoctor":8083,"ĠRoc":8084,"ĠDance":8085,"Ġdynasty":8086,"Ġadjacent":8087,"Ġmand":8088,"Ġapproval":8089,"Ġhousing":8090,"Ġdisplayed":8091,"ĠHamp":8092,"ĠReturn":8093,"ĠAustralians":8094,"ĠBelgium":8095,"10":8096,"Ġcreator":8097,"Ġcredits":8098,"Ġju":8099,"ĠChristopher":8100,"Ġturb":8101,"Ġgrown":8102,"Ġjoining":8103,"Ġlisting":8104,"Ġcollapse":8105,"Ġtribute":8106,"Ġaware":8107,"ĠDiego":8108,"Ġpartnership":8109,"ĠShakesp":8110,"eu":8111,"Ġprotagonist":8112,"iac":8113,"Ġfung":8114,"ĠCold":8115,"ĠEvent":8116,"zz":8117,"ĠRand":8118,"odore":8119,"ante":8120,"Ġexplo":8121,"ĠMedal":8122,"Äį":8123,"Ġmoments":8124,"ods":8125,"Ġacted":8126,"Ġchanging":8127,"Ġcreative":8128,"ãģ":8129,"Ġ*":8130,"alions":8131,"Ġdesignation":8132,"wa":8133,"icy":8134,"Ġpowered":8135,"ĠGab":8136,"ĠKal":8137,"ugby":8138,"Ġinstrumental":8139,"ĠRepresent":8140,"itud":8141,"ĠMuch":8142,"Ġrefere":8143,"Ġtrend":8144,"ĠLaure":8145,"Ġasks":8146,"ĠChildren":8147,"ĠCamer":8148,"ĠDC":8149,"onnaissance":8150,"velt":8151,"Ġradar":8152,"Ġcanal":8153,"bra":8154,"Ġstorms":8155,"ĠMichel":8156,"ĠHud":8157,"Ġarts":8158,"Ġvillages":8159,"ĠCred":8160,"ĠLl":8161,"Ġpossession":8162,"Ġ1905":8163,"Ġappointment":8164,"Ġadvis":8165,"Ġ1908":8166,"Ġdollars":8167,"imeter":8168,"Ġtreaty":8169,"Ġscientists":8170,"die":8171,"Ġ1909":8172,"ounced":8173,"Ġrounds":8174,"ĠKhan":8175,"sters":8176,"otten":8177,"ĠRecord":8178,"Ġvictories":8179,"Ġsurvive":8180,"ĠGuardian":8181,"Ã§":8182,"Ġeliminated":8183,"Ġpaintings":8184,"ĠBenjamin":8185,"Ġcovering":8186,"ĠLegacy":8187,"Ġwheel":8188,"Ġminimal":8189,"Ġprecip":8190,"Ġels":8191,"ĠRoose":8192,"ĠHockey":8193,"cop":8194,"Ġelsewhere":8195,"Ġtelling":8196,"icts":8197,"ĠVietnamese":8198,"ĠHills":8199,"Ġnewspapers":8200,"Ġinnov":8201,"Ġsurprise":8202,"Ġbenefit":8203,"ivated":8204,"active":8205,"ecraft":8206,"Ġseeking":8207,"ĠAR":8208,"Ġarriving":8209,"Ġanaly":8210,"Ġhelping":8211,"Ġoccupation":8212,"Ġrhythm":8213,"Ġsuicide":8214,"ĠMinnesota":8215,"ouri":8216,"Ġpurposes":8217,"ĠFal":8218,"ĠAlfred":8219,"vy":8220,"Ġunlike":8221,"ĠThor":8222,"Ġvalues":8223,"Ġdispute":8224,"Ġoccasions":8225,"Ġbrick":8226,"Ġgard":8227,"ĠHind":8228,"Ġsmooth":8229,"Ġloan":8230,"Ġpool":8231,"ĠSet":8232,"ĠManhatt":8233,"Ġtwin":8234,"ĠTun":8235,"Ġwet":8236,"rupted":8237,"Ġoption":8238,"roid":8239,"ĠManhattan":8240,"ĠDiv":8241,"uman":8242,"Ġmanuscript":8243,"ographical":8244,"orious":8245,"Ġsoil":8246,"Ġgat":8247,"ĠKurt":8248,"ĠFranklin":8249,"Ġfishing":8250,"ĠInterstate":8251,"Ġstruggle":8252,"ĠWalker":8253,"Ġcryst":8254,"rm":8255,"overs":8256,"Ġmurd":8257,"Ġ105":8258,"Ġbalance":8259,"no":8260,"ĠLin":8261,"ĠAff":8262,"ĠAdminist":8263,"TA":8264,"ĠSon":8265,"Ġ125":8266,"Ġhelic":8267,"Ġdegrees":8268,"ĠAnim":8269,"ĠRoosevelt":8270,"Ġ04":8271,"Ġpreserved":8272,"ĠTrust":8273,"gon":8274,"ĠÄ":8275,"Ġschedule":8276,"esh":8277,"ĠComb":8278,"ĠShel":8279,"Ġflash":8280,"ĠPerform":8281,"Ġ1907":8282,"Ġcateg":8283,"Ġcooper":8284,"ĠFlight":8285,"Ġcircumst":8286,"rix":8287,"ĠPeninsula":8288,"acks":8289,"Ġpublicly":8290,"atherine":8291,"ĠHong":8292,"Ġviolent":8293,"Ġcandidates":8294,"Ġresumed":8295,"ĠBeck":8296,"rome":8297,"orph":8298,"Ġemperor":8299,"Ġ164":8300,"acle":8301,"ĠBull":8302,"Ġhonour":8303,"nik":8304,"ĠIce":8305,"ĠKansas":8306,"Ġcompeted":8307,"Ġpilots":8308,"Ġwedding":8309,"ĠFried":8310,"Ġsurvivors":8311,"ishment":8312,"incial":8313,"munition":8314,"Ġdies":8315,"Ġabilities":8316,"ĠIndustry":8317,"ĠBh":8318,"Ġprocl":8319,"Ġneutral":8320,"sky":8321,"ĠNash":8322,"action":8323,"Ġcook":8324,"ulating":8325,"Ġspan":8326,"ĠSatur":8327,"mph":8328,"oking":8329,"Ġbeautiful":8330,"Ġbid":8331,"ĠLith":8332,"ĠMississipp":8333,"Ġimpossible":8334,"ĠPortland":8335,"Ġcoordin":8336,"Ġintensified":8337,"ĠBorn":8338,"Ġalignment":8339,"Ġargument":8340,"Ġmulti":8341,"Ġteaching":8342,"fted":8343,"Ġadvoc":8344,"Ġcustom":8345,"Ġassisted":8346,"Ġpoison":8347,"Ġwrest":8348,"Ġlem":8349,"Ġdefeating":8350,"Ġconsult":8351,"Ġelectronic":8352,"obile":8353,"Ġconcrete":8354,"Ġlists":8355,"Ġprosp":8356,"ĠHotel":8357,"Ġovert":8358,"Ġnations":8359,"ĠWolf":8360,"ĠPle":8361,"Ġserial":8362,"Ġsimpl":8363,"Ġrivers":8364,"ensions":8365,"Ġdiscip":8366,"Ġabsol":8367,"ĠBuilding":8368,"aph":8369,"Ġpy":8370,"ĠWard":8371,"ĠDigital":8372,"Ġassists":8373,"Ġfoundation":8374,"Ġelabor":8375,"ĠBrun":8376,"isp":8377,"ĠVI":8378,"Ġopponent":8379,"ĠJos":8380,"Ġinteresting":8381,"à¤":8382,"Ġdanc":8383,"ilty":8384,"Ġagricultural":8385,"eare":8386,"Ġbusinesses":8387,"Ġbacking":8388,"Ġoxygen":8389,"Ġsuitable":8390,"Ġ165":8391,"ĠCole":8392,"Ġparent":8393,"Ġmines":8394,"Ġsigning":8395,"Ġ1880":8396,"Ġsubmitted":8397,"Ġtunnel":8398,"Ġfifteen":8399,"Ġunderstanding":8400,"Ġscholar":8401,"ĠHem":8402,"Ġgrey":8403,"rows":8404,"ĠCob":8405,"ĠLam":8406,"Ġencounter":8407,"Ġsymptoms":8408,"ĠBlues":8409,"iveness":8410,"itated":8411,"ĠDw":8412,"face":8413,"Ġciting":8414,"Ġwaves":8415,"Ġbehalf":8416,"ĠHalo":8417,"icer":8418,"Ġorbit":8419,"ĠAlexand":8420,"ĠShakespeare":8421,"Ġspiritual":8422,"Ġsunk":8423,"ĠDom":8424,"ctic":8425,"Ġpercentage":8426,"ĠNative":8427,"Ġparish":8428,"Ġsank":8429,"ĠWol":8430,"agen":8431,"Ġforests":8432,"ĠArea":8433,"ĠTenness":8434,"ĠHindu":8435,"bl":8436,"Ġninet":8437,"Ġforty":8438,"Ġsituated":8439,"unch":8440,"Ġsigns":8441,"Ġclosing":8442,"Ġsubjects":8443,"ĠCampbell":8444,"ĠVinc":8445,"ĠAthlet":8446,"onymous":8447,"alities":8448,"Ġammunition":8449,"SP":8450,"Ġvoiced":8451,"dale":8452,"ĠProm":8453,"ĠKings":8454,"Ġusual":8455,"Ġillness":8456,"Ġnom":8457,"ĠNon":8458,"ĠTag":8459,"Ġrepairs":8460,"ĠSullivan":8461,"ĠHero":8462,"Ġresolution":8463,"Ġcorpor":8464,"asters":8465,"ĠSteven":8466,"Ġimperial":8467,"ĠLucas":8468,"ĠDest":8469,"Ġasking":8470,"ĠBox":8471,"Ġdisaster":8472,"Ġfunctions":8473,"Ġcollaboration":8474,"Ġassess":8475,"Ġ01":8476,"Ġattendance":8477,"Ġcontroll":8478,"Ġrestaurant":8479,"lah":8480,"ĠFriend":8481,"Ġlieutenant":8482,"ĠEgyptian":8483,"father":8484,"Ġevil":8485,"Ġaudiences":8486,"Ġfeelings":8487,"Ġstring":8488,"Ġunderground":8489,"Ġdeliber":8490,"Äĥ":8491,"Ġworship":8492,"Ġjunction":8493,"ĠRen":8494,"Ġflights":8495,"ĠStevens":8496,"Ġportra":8497,"Ġaffairs":8498,"Ġsuspended":8499,"uv":8500,"ĠMargaret":8501,"amic":8502,"Ġskull":8503,"ĠTennessee":8504,"ĠRab":8505,"Ġexit":8506,"ĠMississippi":8507,"aron":8508,"osm":8509,"sex":8510,"ĠRace":8511,"odge":8512,"amps":8513,"Ġpron":8514,"Ġwilling":8515,"ĠJosh":8516,"Ġtargets":8517,"ĠLouisiana":8518,"ËĪ":8519,"Ġcargo":8520,"Ġiniti":8521,"Ġearthqu":8522,"rator":8523,"Ġrecre":8524,"Ġ1906":8525,"ĠMack":8526,"Ġaffair":8527,"Ġfuneral":8528,"ĠMontreal":8529,"idd":8530,"Ġprol":8531,"Ġoperational":8532,"ĠMcL":8533,"ĠHistoric":8534,"resents":8535,"ques":8536,"ĠWarren":8537,"Ġabol":8538,"Ġ360":8539,"Ġpoorly":8540,"ĠLabour":8541,"rus":8542,"Ġlect":8543,"Ġmeasured":8544,"Ġ1904":8545,"Ġcompilation":8546,"ĠPalest":8547,"Ġdocuments":8548,"Ġmountains":8549,"ĠMissouri":8550,"Ġfiled":8551,"Ġaimed":8552,"rants":8553,"uable":8554,"racts":8555,"Ġcircuit":8556,"Ġregistered":8557,"Ġanch":8558,"ĠKu":8559,"weet":8560,"Ġ1870":8561,"ĠDepression":8562,"ĠPhilippines":8563,"Ġconscious":8564,"CC":8565,"ĠTan":8566,"Ġstatue":8567,"Ġfavorable":8568,"Ġelder":8569,"Ġsubt":8570,"Ġaffili":8571,"Ġrout":8572,"Ġliked":8573,"ĠApple":8574,"Ġadopt":8575,"ĠMitchell":8576,"ori":8577,"anium":8578,"ĠNag":8579,"andal":8580,"ĠStat":8581,"Ġbot":8582,"Ġrecognised":8583,"Ġexplosion":8584,"ĠDragon":8585,"ĠBilly":8586,"ateur":8587,"Ġrepresents":8588,"Ġprofessor":8589,"Ġentertainment":8590,"Ġjazz":8591,"fe":8592,"Ġtemporarily":8593,"ception":8594,"Ġsector":8595,"ĠStr":8596,"Ġben":8597,"ĠCow":8598,"ĠJoh":8599,"ĠSmall":8600,"Ġsequences":8601,"ĠCritics":8602,"Ġreplacing":8603,"ika":8604,"Ġfifty":8605,"ĠPed":8606,"overe":8607,"ĠKirk":8608,"gate":8609,"Ġoffering":8610,"Ġshells":8611,"Ġcyl":8612,"idel":8613,"adi":8614,"Ġartwork":8615,"ĠRing":8616,"ĠVis":8617,"ĠGraham":8618,"ĠIndependent":8619,"Ġwore":8620,"Ġresidence":8621,"Ġinterpre":8622,"Ġpreparation":8623,"era":8624,"ĠFem":8625,"inea":8626,"Ġmargin":8627,"Ġ03":8628,"species":8629,"ĠMagn":8630,"ĠBusiness":8631,"ĠCzech":8632,"orders":8633,"issions":8634,"Ġreflected":8635,"Ġrestoration":8636,"Ġnucle":8637,"Ġalliance":8638,"Ġprime":8639,"Ġreluct":8640,"Ġdirectors":8641,"Ġexpensive":8642,"ĠMess":8643,"Ġrig":8644,"ĠLov":8645,"Ġterror":8646,"Ġtouring":8647,"ĠSnow":8648,"ĠNear":8649,"ĠUE":8650,"ancell":8651,"ylan":8652,"Ġoverw":8653,"inental":8654,"Ġalcohol":8655,"Ġcompleting":8656,"Ġamongst":8657,"Ġthinking":8658,"race":8659,"ĠYe":8660,"Ġsuggesting":8661,"ĠMaur":8662,"artney":8663,"ĠMes":8664,"unc":8665,"ĠAriz":8666,"Ġbanks":8667,"Ġhorror":8668,"Ġgrav":8669,"bishop":8670,"ellect":8671,"ĠCuba":8672,"Ġcancelled":8673,"ĠSeven":8674,"Ġrebuilt":8675,"Ġcoverage":8676,"Ġcod":8677,"ĠFrid":8678,"quir":8679,"Ġpulled":8680,"Ġreven":8681,"Ġdecides":8682,"Ġescaped":8683,"Ġdimens":8684,"ĠGuide":8685,"Ġerupt":8686,"Ġbay":8687,"Ġwasn":8688,"Ġamounts":8689,"ĠChand":8690,"ĠEdge":8691,"Ġcous":8692,"iph":8693,"Ġlacked":8694,"Ġtribes":8695,"overeign":8696,"rep":8697,"Ġracing":8698,"Ġdramatic":8699,"ĠPhoen":8700,"Ġclearly":8701,"Ġcommunication":8702,"Ġgarden":8703,"Ġpatterns":8704,"ĠTamil":8705,"ĠFiles":8706,"Ġfamiliar":8707,"Ġpredomin":8708,"urally":8709,"Ġengagement":8710,"Ġfrig":8711,"Ġrit":8712,"Ġownership":8713,"apping":8714,"Ġargues":8715,"rak":8716,"ĠCher":8717,"Ġmarks":8718,"uary":8719,"ĠArizona":8720,"Ġsaved":8721,"ĠIndies":8722,"Ġarmored":8723,"Ġperspective":8724,"ĠSony":8725,"okes":8726,"Ġmathemat":8727,"Ġcolonies":8728,"ĠPersian":8729,"Ġgang":8730,"Ġwicket":8731,"Ġdrove":8732,"ĠGrey":8733,"ĠSaturday":8734,"Ġcontributions":8735,"Ġmerchant":8736,"Ġsolution":8737,"ĠDylan":8738,"storm":8739,"Ġprint":8740,"Ġfastest":8741,"ti":8742,"Ġplayoffs":8743,"Ġartistic":8744,"Ġadministrative":8745,"Ġseed":8746,"ĠScout":8747,"Ġremnants":8748,"ieties":8749,"Ġtag":8750,"Ġexecut":8751,"Ġcharacterized":8752,"Ãº":8753,"Ġfalse":8754,"ĠMarie":8755,"athy":8756,"je":8757,"Ġboundary":8758,"idency":8759,"Ġrising":8760,"Ġmilitia":8761,"Ġkings":8762,"Ġ115":8763,"Ġseverely":8764,"fish":8765,"Ġcrews":8766,"exp":8767,"Ġinstitutions":8768,"Ġarmament":8769,"oga":8770,"Ġdisappoin":8771,"ĠLas":8772,"Ġbadly":8773,"Ġretail":8774,"Ġdepending":8775,"Ġflagship":8776,"ĠConfederate":8777,"bre":8778,"Ġearning":8779,"Ġbulk":8780,"ĠBureau":8781,"Ġgenetic":8782,"Ġdistinctive":8783,"ova":8784,"Ġbowling":8785,"Ġexplains":8786,"Ġideal":8787,"ses":8788,"Ġbran":8789,"acon":8790,"ĠPa":8791,"ĠEP":8792,"Ġnotice":8793,"Ġrecip":8794,"orer":8795,"itting":8796,"Ġbronze":8797,"omber":8798,"Ġfallen":8799,"Ġexcav":8800,"ĠOklah":8801,"Ġrestricted":8802,"Ġranks":8803,"cru":8804,"Ġcontext":8805,"equ":8806,"Ġfrust":8807,"Ġcomparison":8808,"Ġthrew":8809,"ĠNik":8810,"ectic":8811,"ĠSin":8812,"ĠLiz":8813,"elli":8814,"Ġdemonstrated":8815,"mented":8816,"Ġexplain":8817,"Ġcondem":8818,"Ġranging":8819,"Ġearn":8820,"Ġquiet":8821,"uations":8822,"Ġpoems":8823,"Ġinland":8824,"Ġ174":8825,"Ġcontrols":8826,"Ġinhabitants":8827,"life":8828,"Ġarrive":8829,"ĠSwitzer":8830,"ĠWilhelm":8831,"Ġriders":8832,"ĠMurphy":8833,"Ġtrick":8834,"Ġsisters":8835,"ĠAmy":8836,"Ġgap":8837,"ĠProgram":8838,"Ġpractices":8839,"Ġloop":8840,"ĠLang":8841,"ĠkW":8842,"Ġwants":8843,"Ġmental":8844,"Ġmaneu":8845,"ĠHarvey":8846,"ĠMrs":8847,"ĠSuch":8848,"Ġfaster":8849,"ĠEconom":8850,"Ġvel":8851,"Ġconservative":8852,"Ġelectron":8853,"ĠBroadway":8854,"ĠABC":8855,"ivia":8856,"formation":8857,"Ġmeat":8858,"Ġwider":8859,"ĠSwitzerland":8860,"lings":8861,"Ġshield":8862,"Ġsynd":8863,"Ġobvious":8864,"Ġrevol":8865,"Ġkit":8866,"oven":8867,"ocking":8868,"ĠNa":8869,"Ġsurge":8870,"Ġexclud":8871,"Ġspotted":8872,"otton":8873,"tha":8874,"ĠBarry":8875,"Ġacceler":8876,"Ġvulner":8877,"Ġreaches":8878,"pha":8879,"Ġ1901":8880,"Ġdistinguished":8881,"Ġpace":8882,"Ġplus":8883,"Ġnorthward":8884,"rÃ©":8885,"Ġevolved":8886,"Ġexhibition":8887,"asts":8888,"anton":8889,"Ġapplication":8890,"Ġgate":8891,"ĠOklahoma":8892,"EC":8893,"ĠTel":8894,"Ġmillimet":8895,"ĠAustrian":8896,"Ġquarterback":8897,"Ġnominations":8898,"Ġagency":8899,"Ġtriple":8900,"Ġprotein":8901,"hu":8902,"Ġsubspecies":8903,"ĠFederation":8904,"Ġframe":8905,"ruption":8906,"Ġsatellite":8907,"ĠClar":8908,"Ġtip":8909,"Ġautobi":8910,"ĠOriginal":8911,"SA":8912,"Ġdominant":8913,"Ġprepare":8914,"Ġhouseholds":8915,"Ġpredicted":8916,"Ġpalace":8917,"inations":8918,"ĠDelaware":8919,"Ġwreck":8920,"uma":8921,"Ġtex":8922,"eton":8923,"Ġstorage":8924,"Ġslaves":8925,"Ġ1903":8926,"ĠBomb":8927,"urer":8928,"ĠRat":8929,"sequently":8930,"grade":8931,"Ġintellect":8932,"Ġ155":8933,"Ġ1902":8934,"Ġabund":8935,"ĠLithuan":8936,"Ġthor":8937,"eland":8938,"Ġvs":8939,"Ġarticles":8940,"Ġprinted":8941,"uki":8942,"Ġvast":8943,"Ġ02":8944,"Ġcarriers":8945,"Ġattained":8946,"ĠPerry":8947,"Ġrepeatedly":8948,"Ġfixed":8949,"Ġpredecessor":8950,"Ġallies":8951,"Ġvertical":8952,"Ġsurgery":8953,"ĠLeslie":8954,"Ġstores":8955,"Ġoutl":8956,"din":8957,"Ġstrict":8958,"Ġsignal":8959,"ĠMik":8960,"Ġpeaking":8961,"ĠHarv":8962,"lus":8963,"imen":8964,"ĠFif":8965,"Ġphilosophy":8966,"Ġyield":8967,"Ġphenomen":8968,"Ġadventure":8969,"Ġbiographer":8970,"Ġblocks":8971,"ascar":8972,"Ġexcellent":8973,"oned":8974,"Ġboss":8975,"ĠRih":8976,"Ġdisagre":8977,"ĠBaby":8978,"Ġtack":8979,"ĠOriginally":8980,"Ġpretty":8981,"Ġillegal":8982,"riptions":8983,"ĠDS":8984,"ĠVe":8985,"Ġbombs":8986,"ĠAld":8987,"ĠHur":8988,"Ġperceived":8989,"ĠMother":8990,"iders":8991,"Ġseriously":8992,"Ġchoose":8993,"ĠTokyo":8994,"vant":8995,"icate":8996,"ĠRico":8997,"ĠLess":8998,"Ġcomfort":8999,"Ġapartment":9000,"ĠDenmark":9001,"Ġremarked":9002,"Ġwestward":9003,"ĠJonathan":9004,"ĠRidge":9005,"Ġuseful":9006,"Ġwaiting":9007,"Ġtight":9008,"rose":9009,"Ġcircumstances":9010,"aughters":9011,"ĠBernard":9012,"ĠBaseball":9013,"yler":9014,"Ġcurren":9015,"ĠPlayers":9016,"ĠAtlanta":9017,"ĠRihanna":9018,"aro":9019,"Ġsket":9020,"Ġcoinc":9021,"Ġsurrend":9022,"Ġmeetings":9023,"Ġdrugs":9024,"Ġbattalions":9025,"itage":9026,"ĠChel":9027,"Ġdollar":9028,"Å«":9029,"ĠHann":9030,"ĠAbbey":9031,"Ġsick":9032,"ĠJohnny":9033,"Ġinstitution":9034,"ĠNixon":9035,"Ġphone":9036,"AR":9037,"Ġbreat":9038,"Ġcivilian":9039,"Ġlayer":9040,"ĠWor":9041,"ĠTerrit":9042,"Ġarmour":9043,"Ġreaders":9044,"ĠTon":9045,"Ġwhilst":9046,"Ġ101":9047,"azing":9048,"ng":9049,"ĠRoll":9050,"Ġgust":9051,"Ġchamber":9052,"Ġmatters":9053,"Ġcasting":9054,"Ġfriendship":9055,"rings":9056,"Ġtiss":9057,"ĠPil":9058,"emen":9059,"apolis":9060,"ĠJuan":9061,"Ġstrengthened":9062,"Ġhorn":9063,"Ġvisiting":9064,"Ġplanets":9065,"mi":9066,"Ġholid":9067,"Ġrub":9068,"ĠCampaign":9069,"inian":9070,"ĠMaj":9071,"Ġreconnaissance":9072,"Ġ168":9073,"Ġretain":9074,"Ġsimilarly":9075,"ĠPitts":9076,"Ġsimultaneously":9077,"estone":9078,"ĠInn":9079,"ĠEdwards":9080,"mingham":9081,"rint":9082,"ĠChen":9083,"ĠArnold":9084,"Ġlegacy":9085,"esses":9086,"Ġalternate":9087,"Ġdemanded":9088,"LC":9089,"onomy":9090,"Ġtyphoon":9091,"rik":9092,"ĠOpp":9093,"Ġempt":9094,"ĠAy":9095,"ĠWag":9096,"Ġpanel":9097,"TW":9098,"acc":9099,"ĠRal":9100,"Ġjustice":9101,"gro":9102,"ĠLex":9103,"Ġenlisted":9104,"arth":9105,"ĠSoul":9106,"Ġalive":9107,"Ġinsisted":9108,"ĠRailroad":9109,"ĠIran":9110,"Ġrevers":9111,"ĠPrize":9112,"IS":9113,"Ġhook":9114,"ĠRub":9115,"estyle":9116,"Ġshipping":9117,"ĠMcM":9118,"ĠMadag":9119,"ĠKeith":9120,"jan":9121,"ĠJimmy":9122,"rov":9123,"Ġroots":9124,"Ġneighb":9125,"Ġrevenue":9126,"entle":9127,"Ġpromised":9128,"Ġdemands":9129,"Ġbombing":9130,"ĠInternet":9131,"ĠSem":9132,"Ġpersonally":9133,"Ġlanes":9134,"Ġathletes":9135,"ĠRachel":9136,"Ġconsole":9137,"Ġpropag":9138,"ĠMicro":9139,"aration":9140,"Ġmainland":9141,"Ġdrivers":9142,"Ġstruggled":9143,"Ġdefinition":9144,"Ġlooks":9145,"Ġportions":9146,"Ġpione":9147,"ĠPars":9148,"Ġbacked":9149,"Ġcontinu":9150,"Ġaudition":9151,"Ġorchestra":9152,"Ġbehaviour":9153,"lain":9154,"Ġsung":9155,"ghan":9156,"ĠJar":9157,"Ġdiver":9158,"ĠCost":9159,"ĠShaw":9160,"acre":9161,"Ġartific":9162,"Ġguilty":9163,"Ġguitarist":9164,"ĠYankees":9165,"otyp":9166,"ĠBach":9167,"Ġjobs":9168,"Ġ166":9169,"Ġmarketing":9170,"odox":9171,"Ġoblig":9172,"Ġarmies":9173,"arant":9174,"agh":9175,"regation":9176,"ĠFat":9177,"Ġsurpass":9178,"ĠGray":9179,"ĠBirmingham":9180,"Ġdemolished":9181,"ĠTracy":9182,"Ġdancing":9183,"itis":9184,"ĠLost":9185,"Ġstarring":9186,"ĠFurthermore":9187,"ĠMans":9188,"Ġruling":9189,"Ġcup":9190,"iti":9191,"Ġindu":9192,"ication":9193,"inding":9194,"Ġfeels":9195,"ĠNine":9196,"ĠVik":9197,"atern":9198,"ĠObama":9199,"ĠHugh":9200,"ĠFel":9201,"Ġcompens":9202,"azines":9203,"Ġincreases":9204,"Ġprofile":9205,"Ġfactory":9206,"ĠConstant":9207,"ĠEventually":9208,"avery":9209,"Ġcompliment":9210,"Ġessential":9211,"Ġ109":9212,"Ġpunk":9213,"ĠSak":9214,"Ġmining":9215,"Ġheading":9216,"ĠUniversal":9217,"Ġtheater":9218,"Ġcounties":9219,"ĠCanter":9220,"folk":9221,"Ġpages":9222,"ĠSig":9223,"Ġobst":9224,"Ġexpression":9225,"Ġorganisation":9226,"ĠMcCartney":9227,"ĠEnterprise":9228,"Ġpursue":9229,"ouver":9230,"Ġdiscont":9231,"Ġbelieving":9232,"Ġaffect":9233,"Ġdiscovers":9234,"umps":9235,"apped":9236,"raction":9237,"Ġpatron":9238,"Ġdelivery":9239,"Ġbonus":9240,"Ġmultipl":9241,"AC":9242,"ĠBaker":9243,"ĠBuddh":9244,"ĠPhoenix":9245,"Ġsalt":9246,"ĠJup":9247,"Ġclothing":9248,"ĠComple":9249,"Ġstick":9250,"Ġports":9251,"Ġsucceed":9252,"ĠHudson":9253,"ĠTol":9254,"py":9255,"ĠPubl":9256,"Ġmobile":9257,"Ġsad":9258,"ĠKl":9259,"Ġcrest":9260,"fle":9261,"Ġelevation":9262,"Ġacou":9263,"Ġkiss":9264,"ĠBobby":9265,"ĠWayne":9266,"ĠKarl":9267,"ĠGirls":9268,"cles":9269,"ultan":9270,"ĠConnectic":9271,"ĠSi":9272,"ĠPearl":9273,"Ġdrink":9274,"Ġsecretary":9275,"Ġdoubt":9276,"ĠImpact":9277,"ĠMadagascar":9278,"Ġsq":9279,"Ġaccum":9280,"Ġforecast":9281,"Ġorn":9282,"Ġengage":9283,"tario":9284,"Ġhoriz":9285,"ĠTodd":9286,"ĠConnecticut":9287,"bird":9288,"ĠPeace":9289,"ĠDefence":9290,"Ġdemocr":9291,"Ġchest":9292,"ĠBosn":9293,"irty":9294,"Ġaltered":9295,"aux":9296,"ĠMorrison":9297,"Ġoverseas":9298,"Ġmayor":9299,"Ġbaby":9300,"ĠHold":9301,"ĠRights":9302,"Ġdeterior":9303,"inces":9304,"Ġlisten":9305,"ĠPatt":9306,"ello":9307,"ĠOntario":9308,"Ġexpand":9309,"ĠDeb":9310,"owed":9311,"ĠKit":9312,"Ġdefences":9313,"Ġerected":9314,"Ġrenov":9315,"ĠPotter":9316,"ĠDiam":9317,"Ġcancel":9318,"warf":9319,"asant":9320,"irts":9321,"Ġvoy":9322,"shore":9323,"Ġstress":9324,"Ġcompounds":9325,"Ġsettlers":9326,"ĠFriday":9327,"Ġmusician":9328,"ĠCanterbury":9329,"mund":9330,"pent":9331,"oker":9332,"ĠWorks":9333,"acked":9334,"stan":9335,"ĠGoth":9336,"Ġlegislature":9337,"mat":9338,"Ġpale":9339,"ĠSpart":9340,"ĠManu":9341,"ĠRan":9342,"Ġobjective":9343,"yrus":9344,"ĠCommunity":9345,"ĠLeonard":9346,"OS":9347,"ĠFarm":9348,"Ġdecisions":9349,"Ġraising":9350,"Ġhighways":9351,"Ġaerial":9352,"Ġliquid":9353,"oons":9354,"Ġdisl":9355,"Ġconversion":9356,"aks":9357,"ĠAllies":9358,"Ġsolar":9359,"Ġaftermath":9360,"Ġsoldier":9361,"Ġconcentration":9362,"Ġscen":9363,"ensively":9364,"Ġcampaigns":9365,"rous":9366,"ĠBath":9367,"Ġsitting":9368,"ĠCycl":9369,"Ġindicating":9370,"Ġconspir":9371,"Ġhapp":9372,"ulous":9373,"ifies":9374,"Ġexactly":9375,"ĠNAS":9376,"Ġhidden":9377,"Ġprove":9378,"ĠForeign":9379,"Ġorganised":9380,"Ġwealthy":9381,"Ġacknowledged":9382,"aments":9383,"ĠPruss":9384,"Ġpermitted":9385,"Ġdanger":9386,"Ġwrestling":9387,"Ġtrouble":9388,"Ġradical":9389,"oa":9390,"ĠLat":9391,"ĠKan":9392,"Ġimprovements":9393,"Ġdissipated":9394,"ĠGriff":9395,"Ġrealized":9396,"Ġski":9397,"Ġstriking":9398,"Ġgraduated":9399,"Ġdressed":9400,"ĠWindows":9401,"ĠNapoleon":9402,"ĠTed":9403,"ĠBoys":9404,"Ġappropriate":9405,"Ġconfron":9406,"Ġexecution":9407,"ratropical":9408,"Ġanth":9409,"Ġmeter":9410,"ĠZe":9411,"ĠUEFA":9412,"ĠPy":9413,"Ġobservations":9414,"Ġmac":9415,"Ġraids":9416,"Ġlin":9417,"ĠLegend":9418,"uese":9419,"Ġprofit":9420,"ĠOutstanding":9421,"Ġencl":9422,"Ġremoval":9423,"Ġinterpretation":9424,"ĠLaur":9425,"Ġfewer":9426,"Ġtravels":9427,"otte":9428,"Ġsky":9429,"Ġcelebrated":9430,"Ġvenue":9431,"Ġnet":9432,"Ġsharp":9433,"Ġpublications":9434,"Ġinitiated":9435,"Ġaggressive":9436,"ĠVanc":9437,"ĠSeason":9438,"Ġturret":9439,"ĠGary":9440,"Ġtheatrical":9441,"Ġchapel":9442,"atus":9443,"Ġpublishing":9444,"Ġrequires":9445,"Ġ152":9446,"Ġevacuated":9447,"Ġjurisd":9448,"inister":9449,"ivation":9450,"ĠLion":9451,"ĠVancouver":9452,"ĠDall":9453,"Ġdebt":9454,"itudes":9455,"Ġfounding":9456,"Ġorigins":9457,"ĠMint":9458,"Ġoriginated":9459,"Ġtort":9460,"itals":9461,"ipper":9462,"Ġstationed":9463,"Ġcannon":9464,"ĠGate":9465,"Ġexplan":9466,"ĠSymph":9467,"Ġconnect":9468,"ĠEdin":9469,"Ġbrill":9470,"ĠJupiter":9471,"olly":9472,"Ġdefending":9473,"ĠAbd":9474,"Ġestablishing":9475,"run":9476,"Ġsupple":9477,"ugg":9478,"Ġmush":9479,"Ġconsidering":9480,"Ġsteps":9481,"Ġrebellion":9482,"Ġshorter":9483,"Ġarrangements":9484,"Ġannouncement":9485,"adier":9486,"ĠMem":9487,"ĠChampions":9488,"Ġcutting":9489,"ĠPakistan":9490,"Ġbones":9491,"ĠMountains":9492,"Ġfantasy":9493,"Ġguarant":9494,"annon":9495,"Ġmagic":9496,"itively":9497,"rapped":9498,"ĠDrive":9499,"ĠTNA":9500,"ĠLib":9501,"OT":9502,"Ã¦":9503,"Ġ173":9504,"Ġmagazines":9505,"Ġconnecting":9506,"autical":9507,"Ġaspect":9508,"ĠTit":9509,"ĠCov":9510,"Ġerr":9511,"Ġapproaching":9512,"ĠBradman":9513,"Ġmemor":9514,"ĠChampion":9515,"aja":9516,"Ġextratropical":9517,"Ġhosts":9518,"Ġdonated":9519,"Ġwalking":9520,"ĠÃĨthel":9521,"ais":9522,"Ġing":9523,"Ġplacing":9524,"phone":9525,"ennium":9526,"Ġstrategic":9527,"ĠOur":9528,"Ġinsects":9529,"ĠPortuguese":9530,"Ġlying":9531,"ĠTriple":9532,"ĠAdministration":9533,"Ġongoing":9534,"ĠLen":9535,"Ġdiscussion":9536,"hears":9537,"Ġ104":9538,"Ġfunny":9539,"Ġcolleagues":9540,"Ġtalent":9541,"ĠShip":9542,"Ġcub":9543,"ĠStu":9544,"Ġedited":9545,"Ġyoungest":9546,"Ġglac":9547,"ĠAlice":9548,"Ġpredict":9549,"Ġclosest":9550,"à¸":9551,"Ġmal":9552,"Ġqualified":9553,"Ġhypothes":9554,"Ġgathered":9555,"Ġforth":9556,"Ġbattlecru":9557,"Ġtubes":9558,"asa":9559,"Ġdecide":9560,"ĠTrophy":9561,"Ġvolumes":9562,"ecution":9563,"ĠJoy":9564,"Ġputting":9565,"Ġlandscape":9566,"Ġrede":9567,"Ġindicates":9568,"Ġcoup":9569,"Ġwatershed":9570,"onium":9571,"adal":9572,"Ġstrongest":9573,"Ġswitch":9574,"Ġ1860":9575,"Ġwithdrawal":9576,"ĠDwight":9577,"bow":9578,"fts":9579,"ĠGene":9580,"venth":9581,"ĠIsa":9582,"Ġ1893":9583,"Ġangle":9584,"Ġforg":9585,"Ġcaps":9586,"Ġsupplied":9587,"hous":9588,"Ġmarkets":9589,"Ġidentify":9590,"Ġgray":9591,"Ġles":9592,"Ġexposure":9593,"Ġcircle":9594,"ĠMarvel":9595,"ĠFleming":9596,"Ġneighbour":9597,"Ġdesert":9598,"Ġspecimen":9599,"Ġconfront":9600,"Ġmerely":9601,"Ġcollapsed":9602,"atra":9603,"ĠChes":9604,"ĠPap":9605,"ĠAnc":9606,"Ġ1896":9607,"Ġpartial":9608,"Ġchallenged":9609,"earing":9610,"elta":9611,"ĠReserve":9612,"ĠHonor":9613,"Ġbeam":9614,"ĠDub":9615,"anner":9616,"Ġdensity":9617,"ĠHampshire":9618,"ĠNCAA":9619,"Ġbrig":9620,"ĠMission":9621,"ĠEdinburgh":9622,"Ġcock":9623,"Ġbare":9624,"Ġshift":9625,"avel":9626,"Ġvisits":9627,"Ġlimits":9628,"Ġdubbed":9629,"Ġspac":9630,"Ġfeeding":9631,"join":9632,"ĠPam":9633,"ĠStri":9634,"ĠOliver":9635,"Ġhydrogen":9636,"ĠBak":9637,"Ġprovision":9638,"soft":9639,"ieth":9640,"ĠThose":9641,"agger":9642,"Ġclin":9643,"Ġprize":9644,"Ġeducational":9645,"Ġconventional":9646,"ĠDod":9647,"ĠMeteor":9648,"ĠBeng":9649,"Ġplain":9650,"enna":9651,"ista":9652,"ĠSomet":9653,"ĠFlying":9654,"Ġseized":9655,"ocy":9656,"athers":9657,"ĠAfghan":9658,"Ġduo":9659,"ĠYears":9660,"Ġannually":9661,"ĠTob":9662,"Ġbearing":9663,"Ġcorps":9664,"Ġconcentrated":9665,"Ġtopped":9666,"irates":9667,"otal":9668,"Ġexha":9669,"Ġmarry":9670,"Ġmembership":9671,"Ġchampions":9672,"Ġ1898":9673,"amental":9674,"Ġattending":9675,"ĠSay":9676,"iper":9677,"Ġassembly":9678,"Ġparody":9679,"Ġbacter":9680,"ĠCharts":9681,"Ġranges":9682,"ĠMosc":9683,"Ġ172":9684,"Ġdogs":9685,"hard":9686,"ĠNatural":9687,"Ġoffense":9688,"Ġnavy":9689,"ĠType":9690,"Ġfurn":9691,"arr":9692,"ĠTig":9693,"Ġemphasis":9694,"ĠPin":9695,"ĠPrincip":9696,"ĠMonte":9697,"igenous":9698,"Ġweekly":9699,"Ġ350":9700,"ĠBegin":9701,"Ġproductions":9702,"Ġexercise":9703,"Ġunless":9704,"Ġlegit":9705,"Ġtalking":9706,"Ġticket":9707,"ĠMeg":9708,"Ġinvestigate":9709,"ĠList":9710,"Ġtrough":9711,"ĠKap":9712,"Ġbasin":9713,"Ġanime":9714,"ĠFinally":9715,"ĠRalph":9716,"Ġpromotional":9717,"Ġcruc":9718,"Ã¼r":9719,"olve":9720,"terior":9721,"Ġ111":9722,"ĠVictorian":9723,"Ġbond":9724,"ĠPersonal":9725,"Ã°":9726,"Ġbone":9727,"ĠDemocrats":9728,"Ġjury":9729,"Ġportrayal":9730,"ĠAx":9731,"ĠMand":9732,"oys":9733,"ĠDeep":9734,"ĠYorkshire":9735,"Ġceased":9736,"Ġfortress":9737,"Ġflooded":9738,"uzzle":9739,"erk":9740,"Ġ127":9741,"Ġadvertising":9742,"Ġfill":9743,"ĠCelt":9744,"ĠOm":9745,"ĠKo":9746,"Ġregime":9747,"ĠArgentina":9748,"Ġuncom":9749,"ported":9750,"Ġconservation":9751,"rising":9752,"Ġuncle":9753,"Ġbirthday":9754,"ĠLloyd":9755,"onica":9756,"ĠPink":9757,"Ġinvent":9758,"Ġcoff":9759,"Ġemployment":9760,"Ġpersons":9761,"Ġoutput":9762,"Ġqueen":9763,"ĠConvention":9764,"Ġballad":9765,"ĠWhere":9766,"ĠChristianity":9767,"Ġsending":9768,"Ġattitude":9769,"Ġexperimental":9770,"ĠVillage":9771,"Ġphotographs":9772,"Ġbishop":9773,"Ġeval":9774,"Ġsoftware":9775,"ĠBrothers":9776,"Ġhitting":9777,"Ġquestioned":9778,"ĠHaz":9779,"ĠJerry":9780,"aders":9781,"oviÄĩ":9782,"Ġguide":9783,"ĠOverall":9784,"ĠTak":9785,"Ġprovincial":9786,"ĠChronicle":9787,"ĠLt":9788,"Ġscattered":9789,"pled":9790,"Ġdrinking":9791,"Ġtranslation":9792,"Ġaggreg":9793,"ĠProp":9794,"Ġunclear":9795,"Ġunderwent":9796,"Ġmature":9797,"ĠAS":9798,"ĠFund":9799,"ĠKam":9800,"hammad":9801,"Ġ1899":9802,"Ġoverwhel":9803,"hin":9804,"Ġoutd":9805,"Ġendors":9806,"Ġreplied":9807,"Ġassembled":9808,"Ġcousin":9809,"ications":9810,"rapy":9811,"ĠBooks":9812,"ĠCollins":9813,"Ġcens":9814,"Ġpapers":9815,"ĠMong":9816,"Ġclock":9817,"Ġrepresentatives":9818,"Ġliberal":9819,"Ġcoat":9820,"ĠPrim":9821,"Ġlawyer":9822,"ĠCraig":9823,"Ġswimming":9824,"ashes":9825,"ĠMarge":9826,"ĠCad":9827,"ayan":9828,"rawn":9829,"Ġexternal":9830,"Ġcommentary":9831,"Ġwire":9832,"ologies":9833,"Ġproclaim":9834,"ĠApoll":9835,"ĠAndre":9836,"Ġthirteen":9837,"Ġimagery":9838,"ĠFinland":9839,"Ġstere":9840,"aft":9841,"Ġshr":9842,"Ġtrail":9843,"Ġmonaster":9844,"Ġempire":9845,"ĠNO":9846,"Ġcomprom":9847,"assador":9848,"ĠMaya":9849,"Ġwait":9850,"Ġloved":9851,"ĠGlen":9852,"ĠHowe":9853,"ĠGor":9854,"Ġlawsu":9855,"Ġterrain":9856,"Ġacoustic":9857,"idal":9858,"Ġslave":9859,"Ġpictures":9860,"Ġexclusive":9861,"Ġduration":9862,"Ġelectricity":9863,"imm":9864,"Ġstreak":9865,"Ġdaughters":9866,"amas":9867,"Ġmovies":9868,"Ġ108":9869,"owski":9870,"Ġsang":9871,"ĠEug":9872,"Ġdevast":9873,"ĠTurner":9874,"ioc":9875,"Ġcad":9876,"ĠWii":9877,"Ġaccompanying":9878,"Ġexpert":9879,"Ġbranches":9880,"Ġsurrendered":9881,"ersed":9882,"Ġarrives":9883,"Ġtenure":9884,"atever":9885,"ensed":9886,"Ġstronger":9887,"Ġidentical":9888,"ĠSle":9889,"ĠJun":9890,"pler":9891,"Ġburial":9892,"ĠHardy":9893,"Ġsuccession":9894,"ĠPad":9895,"ĠSimilarly":9896,"Ġdread":9897,"aman":9898,"Ġbeats":9899,"riors":9900,"ĠNorfolk":9901,"ĠQueensland":9902,"Ġreverse":9903,"Ġcomponents":9904,"Ġcharter":9905,"ĠProtest":9906,"Ġ169":9907,"ĠHeritage":9908,"ĠJama":9909,"ĠBoat":9910,"Ġreducing":9911,"Ġprices":9912,"Ġscar":9913,"Ġreveal":9914,"ĠSign":9915,"ellation":9916,"place":9917,"Ġreinforcements":9918,"rod":9919,"ĠBurton":9920,"ĠHawaii":9921,"erg":9922,"ĠDin":9923,"Ġprev":9924,"Ġtrading":9925,"ĠBelgian":9926,"Ġpenet":9927,"ĠNicholas":9928,"ĠProfessor":9929,"illes":9930,"Ġspaces":9931,"Ġdestroying":9932,"Ġpush":9933,"ĠRic":9934,"Ġfailing":9935,"Ġmechanical":9936,"Ġcompeting":9937,"Ġisot":9938,"Ġrecall":9939,"ĠBeaut":9940,"Ġexclusively":9941,"olen":9942,"ĠCommunist":9943,"ĠBennett":9944,"Ġcomponent":9945,"Ġquad":9946,"Ġstops":9947,"Ġatomic":9948,"eyer":9949,"Ġ1850":9950,"ĠRangers":9951,"Ġmyst":9952,"ĠCricket":9953,"ĠDavies":9954,"Ġcounterp":9955,"ĠServices":9956,"hell":9957,"err":9958,"Ġslavery":9959,"ĠEmmy":9960,"Ġprecipitation":9961,"Ġdict":9962,"ĠLock":9963,"Ġdevelopers":9964,"ĠVincent":9965,"ĠDak":9966,"ricts":9967,"Ġdevices":9968,"Ġfossil":9969,"onian":9970,"ibilities":9971,"Ġpolar":9972,"Ġgovernments":9973,"Ġtraded":9974,"esty":9975,"ĠCredits":9976,"ĠCatherine":9977,"case":9978,"Ġreward":9979,"Ġmini":9980,"Ġpole":9981,"Ġelig":9982,"Ġconsistent":9983,"ĠLiberal":9984,"Ġbanned":9985,"uras":9986,"ĠLiving":9987,"abe":9988,"ĠThunder":9989,"Ġcenters":9990,"Ġconfirm":9991,"ĠMedical":9992,"Ġwish":9993,"ĠYellow":9994,"Ġvaried":9995,"ĠSwift":9996,"Ġobsc":9997,"ĠMalt":9998,"ĠDram":9999,"Ġflowers":10000,"Ġartificial":10001,"ĠLem":10002,"IV":10003,"Ġtube":10004,"Ġpel":10005,"ĠNi":10006,"Ġradiation":10007,"ĠHughes":10008,"Ġwaste":10009,"ĠHob":10010,"ĠRud":10011,"Ġconsiders":10012,"Ġredes":10013,"Ġplatforms":10014,"Ġvirus":10015,"Ġtomb":10016,"Ġincom":10017,"ĠLocal":10018,"ĠTransportation":10019,"Ġbath":10020,"ĠCurt":10021,"ĠLook":10022,"Ġow":10023,"Ġ163":10024,"ĠDonald":10025,"legraph":10026,"Ġcontribution":10027,"Ġdisb":10028,"Ġelectrical":10029,"Ġearthquake":10030,"pike":10031,"ĠTax":10032,"ethel":10033,"ĠGuitar":10034,"itarian":10035,"Ġhybrid":10036,"ĠTraining":10037,"Ġburned":10038,"ĠMust":10039,"angel":10040,"Ġ1897":10041,"ĠPrix":10042,"Ġhumor":10043,"Ġarchitectural":10044,"Ġsongwriter":10045,"Ġreviewed":10046,"Ġecc":10047,"ĠCO":10048,"Ġproceeded":10049,"Ġfourteen":10050,"Ġboilers":10051,"ĠNext":10052,"Ġprofession":10053,"ĠMarket":10054,"Ġadvised":10055,"rastructure":10056,"Ġunderstood":10057,"gs":10058,"onald":10059,"Ġfrequency":10060,"ĠPeters":10061,"ĠHarvard":10062,"Ġhandled":10063,"enesis":10064,"Ġintersects":10065,"Ġtalks":10066,"acles":10067,"Ġdestroyer":10068,"Ġimprovement":10069,"Ġlie":10070,"Ġheir":10071,"ĠBald":10072,"Ġamateur":10073,"Ġcopper":10074,"ĠAra":10075,"ĠDarwin":10076,"ĠSaxon":10077,"Ġtexts":10078,"MI":10079,"rost":10080,"Ġrequirements":10081,"Ġtheore":10082,"Ã¶n":10083,"Ġconceived":10084,"ĠSwiss":10085,"Ġsamples":10086,"uating":10087,"asm":10088,"ĠDyn":10089,"Ġ106":10090,"Ġconflic":10091,"Ġphrase":10092,"Ġinduct":10093,"Ġportr":10094,"itely":10095,"Ġinvestment":10096,"ĠCameron":10097,"Ġrein":10098,"ĠKate":10099,"ĠâĢ¦":10100,"ĠBlu":10101,"Ġsixteen":10102,"Ġreferring":10103,"Ġreduction":10104,"ĠMoscow":10105,"bal":10106,"mith":10107,"Ġshares":10108,"ensis":10109,"ĠOslo":10110,"encing":10111,"Ġusers":10112,"ulty":10113,"Ġrecon":10114,"Ġairfield":10115,"ĠGallery":10116,"ĠPittsburgh":10117,"eding":10118,"Ġworn":10119,"umble":10120,"Ġcharity":10121,"Ġcertainly":10122,"rehens":10123,"Ġweigh":10124,"axy":10125,"ĠHarbor":10126,"Ġvoting":10127,"ĠIndonesia":10128,"ĠPic":10129,"Ġrespective":10130,"Ġcleared":10131,"Ġ167":10132,"Ġpraising":10133,"Ġsoph":10134,"ĠPhys":10135,"ĠGeoff":10136,"Ġparks":10137,"Ġlabour":10138,"ĠCraw":10139,"Ġconstitutional":10140,"eto":10141,"Ġexceed":10142,"strong":10143,"Ġlock":10144,"ĠInv":10145,"Ġ154":10146,"Ġconnections":10147,"Ġphotography":10148,"Ġflows":10149,"Ġtactics":10150,"Ġnit":10151,"ĠAM":10152,"Ġgrossing":10153,"Ġspoken":10154,"Ġtoured":10155,"ffield":10156,"Ġqualifying":10157,"haw":10158,"Ġblind":10159,"Ġsurvival":10160,"ingham":10161,"ĠMS":10162,"tery":10163,"etheless":10164,"eping":10165,"Ġautumn":10166,"Ġshoulder":10167,"ĠTerry":10168,"Ġsweet":10169,"gom":10170,"rh":10171,"Ã«":10172,"avor":10173,"Ġcontinuous":10174,"Ġfisher":10175,"ĠAli":10176,"Ġruler":10177,"Ġreorgan":10178,"Ġstuff":10179,"ĠAlaska":10180,"Ġcommenced":10181,"Ġcommanding":10182,"ean":10183,"ĠAntonio":10184,"Ġnautical":10185,"ĠMond":10186,"ĠMason":10187,"Ġpatients":10188,"ĠTow":10189,"Ġunw":10190,"Ġconfidence":10191,"Ġtaxes":10192,"Ġlegislative":10193,"ĠBroadcast":10194,"Ġtonnes":10195,"Ġunlik":10196,"Ġfold":10197,"icated":10198,"Ġopportunities":10199,"Ġenthusi":10200,"Ġfasc":10201,"Ġexists":10202,"Ġattorney":10203,"Ġtransported":10204,"ĠWallace":10205,"ĠSweet":10206,"ĠRest":10207,"Ġsignature":10208,"Ġcommunist":10209,"ĠSom":10210,"Ġcompetitive":10211,"Ġcamps":10212,"Ġuranium":10213,"ĠMicrosoft":10214,"Ġrelocated":10215,"Ġtranslated":10216,"Ġnat":10217,"Ġmelody":10218,"hum":10219,"pot":10220,"ĠJTW":10221,"ĠStill":10222,"ĠJTWC":10223,"ario":10224,"ĠMayor":10225,"ĠStef":10226,"Ġtested":10227,"ĠGot":10228,"ĠEnt":10229,"Ġindeed":10230,"Ġrocks":10231,"Ġminority":10232,"ĠUpper":10233,"porting":10234,"ĠSyria":10235,"Ġreinforced":10236,"Ġfulf":10237,"ĠAP":10238,"ĠAftermath":10239,"Ġtraveling":10240,"ĠSid":10241,"ĠAT":10242,"ĠHD":10243,"ashi":10244,"ĠClay":10245,"Ġfairly":10246,"Ġsovereign":10247,"Ġmoon":10248,"illo":10249,"cester":10250,"Ġdece":10251,"Ġcommanders":10252,"Ġrevised":10253,"Ġrevolt":10254,"minster":10255,"Ġpairs":10256,"ambers":10257,"ĠPast":10258,"Ġnoble":10259,"ĠOri":10260,"Ġimpression":10261,"Ġcartoon":10262,"bes":10263,"ĠRP":10264,"ĠEmer":10265,"ĠGrace":10266,"Ġmanga":10267,"Ġexplicit":10268,"expected":10269,"Ġuncon":10270,"ĠFr":10271,"Ġwithdrawn":10272,"Ġcrops":10273,"ĠStars":10274,"ĠSheffield":10275,"ĠAer":10276,"anger":10277,"ĠSee":10278,"Ġblues":10279,"ĠAdv":10280,"ĠExper":10281,"Ġprogramming":10282,"tes":10283,"ye":10284,"Ġaccord":10285,"urricanes":10286,"Ġdischar":10287,"Ġextending":10288,"ĠIsraeli":10289,"ĠLarry":10290,"eared":10291,"Ġfram":10292,"ĠEc":10293,"Ġdisplaced":10294,"ĠRu":10295,"oca":10296,"Ġexperiments":10297,"ĠSecurity":10298,"Ġhole":10299,"Ġ1895":10300,"ĠTrail":10301,"Ġprinciples":10302,"ĠLuke":10303,"Ġvoices":10304,"Ġpap":10305,"ĠHalf":10306,"Ġpromin":10307,"Ġextinct":10308,"ĠOfficer":10309,"where":10310,"ĠCass":10311,"ĠFu":10312,"avia":10313,"Ġprovinces":10314,"Ġchron":10315,"ĠVel":10316,"Ġrepresentation":10317,"Ġmagnitude":10318,"Ġlearns":10319,"cott":10320,"isive":10321,"Ġconce":10322,"seud":10323,"Ġcharacteristic":10324,"ussion":10325,"Ġprisoner":10326,"Ġenforce":10327,"oda":10328,"Ġdistant":10329,"Ġcatal":10330,"ĠJefferson":10331,"asks":10332,"uto":10333,"ĠOsc":10334,"Ġsumm":10335,"ĠHerald":10336,"ĠGameS":10337,"Ġculmin":10338,"ĠPictures":10339,"ĠDallas":10340,"Ġsample":10341,"Ġwonder":10342,"Ġcraft":10343,"Ġabuse":10344,"Ġmarine":10345,"Ġ171":10346,"Ġlights":10347,"ĠBryan":10348,"Ġinterpreted":10349,"ĠClarke":10350,"ĠJohnston":10351,"lad":10352,"itious":10353,"ĠTogether":10354,"ĠCyrus":10355,"umph":10356,"Ġwarfare":10357,"Ġnerv":10358,"car":10359,"aching":10360,"Ġrelatives":10361,"utton":10362,"Ġcompound":10363,"Ġpractical":10364,"rooms":10365,"Ġhem":10366,"Ġapproaches":10367,"Ġrivalry":10368,"Ġid":10369,"Ġherit":10370,"ĠQuest":10371,"ĠMix":10372,"ĠAustin":10373,"ĠGuinea":10374,"Ġvictim":10375,"Ġcuts":10376,"ĠMalaysia":10377,"ĠPerformance":10378,"ĠDaw":10379,"ĠChile":10380,"Ġairing":10381,"ĠDefense":10382,"Ġdisplays":10383,"zed":10384,"Ġtraditions":10385,"Ġjudg":10386,"Ġburning":10387,"Ġproposals":10388,"Ġshifted":10389,"Ġbull":10390,"ĠOwen":10391,"Ġcarries":10392,"Ġskill":10393,"Ġlighting":10394,"Ġrehears":10395,"ĠWells":10396,"ĠOrange":10397,"uez":10398,"Ġwarnings":10399,"ĠSteel":10400,"ĠWoman":10401,"ĠEis":10402,"Ġchore":10403,"Ġblocked":10404,"Ġgirlfriend":10405,"Ġmultiplayer":10406,"Ã¥":10407,"Ġsings":10408,"Ġrestore":10409,"Ġmyster":10410,"ĠNeil":10411,"Ġgraduate":10412,"Ġmedicine":10413,"ĠParsons":10414,"ĠFBI":10415,"ĠNord":10416,"Ġparticipation":10417,"ĠOfficial":10418,"ĠGreater":10419,"ationally":10420,"Ġweb":10421,"Ġrebels":10422,"Ġthunder":10423,"ĠEight":10424,"ags":10425,"Ġmans":10426,"Ġabsent":10427,"Ġtransportation":10428,"Ġpreparing":10429,"Ġscores":10430,"ĠFalls":10431,"ĠPriv":10432,"Ġ102":10433,"iciency":10434,"ĠLiter":10435,"Ġconven":10436,"Ġ121":10437,"Ġmarch":10438,"ĠChelsea":10439,"alia":10440,"ĠTai":10441,"Ã¢":10442,"umped":10443,"Ġvaluable":10444,"ĠDanish":10445,"Ġinterviews":10446,"Ġprotests":10447,"Ġcyclones":10448,"ĠFormation":10449,"Ġbrilliant":10450,"Ġwished":10451,"ĠSac":10452,"urd":10453,"Ġriding":10454,"aha":10455,"Ġsalary":10456,"ĠClassic":10457,"Ġfilmm":10458,"ĠNev":10459,"len":10460,"merce":10461,"Ġpassion":10462,"Ġsalv":10463,"ĠArmstrong":10464,"ĠDescription":10465,"yd":10466,"Ġpier":10467,"ĠSega":10468,"ĠBrazilian":10469,"Ġunlikely":10470,"Ġcreek":10471,"ĠHav":10472,"Ġrecovery":10473,"ĠMcKin":10474,"leans":10475,"berry":10476,"Ġinfl":10477,"Ġcabinet":10478,"ĠEve":10479,"ocity":10480,"ĠQuebec":10481,"Ġmaintaining":10482,"ĠFisher":10483,"Ġdistricts":10484,"ĠBeginning":10485,"aters":10486,"ĠStudio":10487,"Ġreforms":10488,"ĠRena":10489,"ĠGreatest":10490,"Ġcinema":10491,"Ġfest":10492,"ĠYam":10493,"Ġintervention":10494,"Ġgarn":10495,"Ġarguing":10496,"Ġestimates":10497,"Ġcourses":10498,"Ġgrandfather":10499,"Ġdrummer":10500,"ĠFourth":10501,"ĠKaiser":10502,"Ġracial":10503,"Ġcontend":10504,"Ġclar":10505,"Ġamph":10506,"Ġaft":10507,"Ġbeneath":10508,"Ġrecurring":10509,"ĠGa":10510,"ĠActor":10511,"ĠSalt":10512,"ĠRio":10513,"Ġreleg":10514,"ĠSpirit":10515,"Ġsignificance":10516,"Ġpetition":10517,"Ġvulnerable":10518,"Ġeating":10519,"uri":10520,"aze":10521,"Ġkills":10522,"Ġtowers":10523,"ĠLink":10524,"ĠEff":10525,"Ġupset":10526,"Ġadvertis":10527,"Ġaccurate":10528,"eston":10529,"ource":10530,"ĠIl":10531,"ĠGay":10532,"Ġdiverse":10533,"ĠEth":10534,"Ġvalid":10535,"aser":10536,"lete":10537,"ĠCathedral":10538,"ĠAuthority":10539,"ĠPlant":10540,"Ġstatistics":10541,"Ġcommunications":10542,"ĠConstantin":10543,"ĠAgency":10544,"ĠÐ":10545,"ĠVers":10546,"ĠReich":10547,"Ġsponsored":10548,"Ġcant":10549,"onge":10550,"Ġparas":10551,"Ġapplications":10552,"Ġhind":10553,"beat":10554,"ĠSusan":10555,"Ġclothes":10556,"ĠOrleans":10557,"nt":10558,"iar":10559,"Ġshock":10560,"Ġansw":10561,"ĠKane":10562,"osexual":10563,"Ġnumbered":10564,"Ġefficient":10565,"ĠUtah":10566,"ĠPoly":10567,"Ġunexpected":10568,"achute":10569,"Ġairline":10570,"ĠHarold":10571,"ĠCultural":10572,"ĠMend":10573,"ĠIvan":10574,"abilities":10575,"Ġsurve":10576,"ĠSerbian":10577,"ĠGlobe":10578,"Ġtoler":10579,"ĠSug":10580,"ĠJunior":10581,"Ġ158":10582,"Ġsteep":10583,"Ġmorph":10584,"Ġsacrif":10585,"Ġdecorated":10586,"ĠCBS":10587,"ĠAmb":10588,"Ġshallow":10589,"utor":10590,"Ġinclusion":10591,"Ġlasting":10592,"itate":10593,"Ġfaces":10594,"Ġessentially":10595,"Ġanswer":10596,"TS":10597,"ucker":10598,"wright":10599,"Ġtale":10600,"Ġpm":10601,"Ġmate":10602,"Ġgender":10603,"ĠScar":10604,"ĠiP":10605,"ĠFIFA":10606,"erver":10607,"Ġconsolid":10608,"Ã©t":10609,"Ġ1861":10610,"Ġsurprised":10611,"ME":10612,"ipped":10613,"affe":10614,"Ġcharted":10615,"ATO":10616,"Ġmood":10617,"oting":10618,"Ġchronic":10619,"Ġjet":10620,"ĠRichmond":10621,"Ġ1889":10622,"Ġemotion":10623,"Ġliner":10624,"ĠPanzer":10625,"ĠMuhammad":10626,"ĠCS":10627,"OC":10628,"ĠMI":10629,"Ġdeeply":10630,"ĠNewton":10631,"Ġbeaten":10632,"mn":10633,"rary":10634,"Ġtheories":10635,"asha":10636,"Ġsquadrons":10637,"landers":10638,"Ġ161":10639,"anche":10640,"Ġ1894":10641,"Ġratio":10642,"Ġfate":10643,"Ġmerged":10644,"ĠProvince":10645,"dess":10646,"hers":10647,"Ġmanage":10648,"Ġsummit":10649,"Ġpotentially":10650,"ĠConstantine":10651,"aiden":10652,"oria":10653,"Ġ162":10654,"Ġdrafted":10655,"keeper":10656,"Ġ113":10657,"ĠRepublicans":10658,"Ġsuspic":10659,"ĠTyler":10660,"levard":10661,"Ġtours":10662,"castle":10663,"Ġprocesses":10664,"iko":10665,"ĠScientology":10666,"vet":10667,"Ġho":10668,"ĠPok":10669,"Ġgrave":10670,"reated":10671,"ĠMinor":10672,"Ġswit":10673,"Ġ1891":10674,"Ġproportion":10675,"akh":10676,"Ġ1000":10677,"Ġcrimes":10678,"Arthur":10679,"Ġdescent":10680,"ĠStuart":10681,"Ġsentence":10682,"Ġdancers":10683,"Ġdual":10684,"Ġscr":10685,"enson":10686,"Ġdemo":10687,"ĠFerr":10688,"Ġbeating":10689,"opp":10690,"ĠYouT":10691,"Ġmerc":10692,"Ġcivilians":10693,"Ġsegments":10694,"Ġpersuaded":10695,"Ġdense":10696,"ĠFighter":10697,"Ġbeauty":10698,"Ġdim":10699,"ocation":10700,"Ġfunded":10701,"Ġimplemented":10702,"Ġheritage":10703,"Ġhills":10704,"Ġbell":10705,"Ġboot":10706,"ĠIns":10707,"ĠOrchest":10708,"Ġaccommodate":10709,"ĠApollo":10710,"ĠYouTube":10711,"Ġreactions":10712,"ĠPicture":10713,"Ġaltitude":10714,"ĠProduct":10715,"ĠSout":10716,"Ġmanip":10717,"Ġcolors":10718,"ĠXII":10719,"ĠBes":10720,"ĠFull":10721,"Ã©s":10722,"Ġpresentation":10723,"Ġgolden":10724,"Ġagriculture":10725,"ĠIndonesian":10726,"Ġwine":10727,"ĠBuffalo":10728,"Ġpip":10729,"ĠAmendment":10730,"Ġstructural":10731,"Ġcomplained":10732,"born":10733,"Ġrib":10734,"ĠTang":10735,"istent":10736,"Ġproof":10737,"aping":10738,"Ġfeared":10739,"Ġ156":10740,"Ġadminister":10741,"Ġ1892":10742,"Ġdevoted":10743,"ĠAlt":10744,"Ġevident":10745,"Ġcolumns":10746,"Ġaddressed":10747,"Ġsoutheastern":10748,"ĠCardiff":10749,"Ġnurs":10750,"Ġâģ":10751,"Ġrequiring":10752,"Ġsailing":10753,"Ġdwarf":10754,"Ġrejoin":10755,"ĠSymphony":10756,"ĠSultan":10757,"boards":10758,"Ġoriented":10759,"onsin":10760,"Ġtriang":10761,"ĠQuar":10762,"ĠHad":10763,"Ġ135":10764,"ĠMcN":10765,"Ġbreaks":10766,"ĠDays":10767,"ĠConservation":10768,"Ġfame":10769,"ĠWa":10770,"heric":10771,"ĠKyle":10772,"yself":10773,"Ġobservation":10774,"ĠHunter":10775,"ĠAA":10776,"sts":10777,"ĠWisc":10778,"Ġerror":10779,"ĠPS":10780,"Ġ1800":10781,"Ġjack":10782,"Ġtribe":10783,"Ġtruck":10784,"ĠBurns":10785,"ĠBrooks":10786,"Ġvoyage":10787,"ĠWonder":10788,"ĠWithout":10789,"ĠGround":10790,"Ġfollowers":10791,"Ġrecept":10792,"Ġmythology":10793,"Ġkidn":10794,"Ġcards":10795,"isons":10796,"ĠSox":10797,"ĠRegister":10798,"Ġinteraction":10799,"Ġpregnant":10800,"ĠJohann":10801,"Ġpink":10802,"ĠDanny":10803,"Ġconfusion":10804,"Ġjudges":10805,"Ġgene":10806,"ĠRuth":10807,"Ġknee":10808,"ocket":10809,"Ġ240":10810,"Ġresearchers":10811,"Ġrect":10812,"ĠAber":10813,"Ġquarters":10814,"ĠElectric":10815,"usalem":10816,"Ġholiday":10817,"Ġjurisdiction":10818,"ĠSection":10819,"ulus":10820,"ospel":10821,"ĠCavalry":10822,"ĠWalt":10823,"rific":10824,"gie":10825,"sor":10826,"ĠNature":10827,"ĠHeb":10828,"Ġintermedi":10829,"othy":10830,"Ġoperates":10831,"ĠIslamic":10832,"ĠMall":10833,"Ġsuddenly":10834,"Ġcategories":10835,"ĠSide":10836,"ĠPant":10837,"ĠPrest":10838,"ĠUntil":10839,"Ġdiplomatic":10840,"anted":10841,"Ġsugar":10842,"Ġwritings":10843,"Ġcommenting":10844,"Ġsuperst":10845,"Ġopens":10846,"izer":10847,"iously":10848,"Ġ153":10849,"osaurs":10850,"nels":10851,"rob":10852,"ĠFitz":10853,"arks":10854,"ĠActress":10855,"Ġembarked":10856,"ĠTitan":10857,"lon":10858,"Ġtension":10859,"ĠMetropolitan":10860,"Ġphysics":10861,"ĠHope":10862,"Ġadvancing":10863,"Ġsculpture":10864,"Ġhighlighted":10865,"ĠâģĦ":10866,"cha":10867,"Ġextensively":10868,"ĠAirlines":10869,"sburg":10870,"Ġsized":10871,"ĠJerusalem":10872,"master":10873,"Ġfert":10874,"Ġthrown":10875,"Ġbears":10876,"ĠGang":10877,"oded":10878,"quest":10879,"Ġassum":10880,"Ġsimilarities":10881,"Ġprinciple":10882,"ĠâĤ¹":10883,"ĠWisconsin":10884,"amount":10885,"Ġgaining":10886,"imp":10887,"Ġages":10888,"Ġstudying":10889,"lington":10890,"ĠBoeing":10891,"ĠJustin":10892,"Ġchallenges":10893,"enos":10894,"Ġmud":10895,"ĠBible":10896,"ĠAbu":10897,"NC":10898,"Ġtooth":10899,"urst":10900,"Ġmanif":10901,"ĠExecutive":10902,"ĠTrade":10903,"Ġdrown":10904,"Ġgardens":10905,"ĠEdition":10906,"Ġlifetime":10907,"ĠKid":10908,"ĠStart":10909,"ĠEnv":10910,"Ġequally":10911,"Ġsentenced":10912,"Ġstatements":10913,"ĠMeth":10914,"Ġknocked":10915,"ĠLegisl":10916,"ĠTyphoon":10917,"Ġinfrastructure":10918,"Ġorange":10919,"Ġfee":10920,"Ġconstitu":10921,"Ġgift":10922,"Ġrivals":10923,"Ġlocally":10924,"ĠBarnes":10925,"ĠSchum":10926,"Ġeducated":10927,"Ġuniversal":10928,"Ġdisturbance":10929,"Ġdivorce":10930,"ĠCrus":10931,"pine":10932,"thodox":10933,"ÃŃn":10934,"edia":10935,"ĠBased":10936,"Ġpredators":10937,"ĠMind":10938,"Ġtraditionally":10939,"Ġdealing":10940,"Ġboundaries":10941,"osph":10942,"Ġvariation":10943,"ĠGrade":10944,"Ġpriest":10945,"Ġties":10946,"chi":10947,"ĠNas":10948,"ĠSean":10949,"Ġgh":10950,"Ġsword":10951,"ĠIndependence":10952,"Ġoverlook":10953,"ancellor":10954,"atched":10955,"ĠMiles":10956,"Ġdocumented":10957,"ĠSud":10958,"Ġexplaining":10959,"Ġempty":10960,"ĠTrad":10961,"Ġresolved":10962,"ĠBaron":10963,"ĠMontgom":10964,"ĠSaturn":10965,"ĠMontgomery":10966,"ĠBud":10967,"ĠUC":10968,"Ġ1888":10969,"ĠAttorney":10970,"Ġstretch":10971,"Ġreceives":10972,"ĠPatri":10973,"ĠRogers":10974,"Ġrings":10975,"Ġspawn":10976,"phan":10977,"ĠLeaf":10978,"ĠCentury":10979,"Ġvillain":10980,"Ġscre":10981,"Ġenabled":10982,"Ġsettlements":10983,"ni":10984,"piece":10985,"ĠControl":10986,"ulsion":10987,"Ġrecruited":10988,"aple":10989,"Ġsupern":10990,"ĠScots":10991,"Ġdiscontin":10992,"Ġgarnered":10993,"Ġtape":10994,"Ġforb":10995,"unning":10996,"Ġ1885":10997,"ĠMacArthur":10998,"Ġconsiderably":10999,"ĠTurkey":11000,"Ġtravelling":11001,"Ġurg":11002,"ĠTu":11003,"ĠSyn":11004,"Ġnaming":11005,"Ġexplore":11006,"Ġcommercially":11007,"Ġbenefits":11008,"Ġcry":11009,"ĠCemetery":11010,"Ġhelps":11011,"Ġtickets":11012,"Ġlift":11013,"Ġstrand":11014,"ĠFact":11015,"ometric":11016,"Ġhostile":11017,"backs":11018,"Ġrescued":11019,"ĠWes":11020,"Ġseas":11021,"Ġsmoke":11022,"Ġoptions":11023,"ĠIcel":11024,"Ġcrashed":11025,"ĠÏ":11026,"Ġsubstitute":11027,"Ġashore":11028,"ĠWinn":11029,"Ġinvolves":11030,"Ġweakening":11031,"ĠToy":11032,"rien":11033,"Ġcliff":11034,"ĠLev":11035,"ĠChristians":11036,"Ġflex":11037,"ĠSherman":11038,"ĠPul":11039,"Ġdisorder":11040,"Ġbatted":11041,"Ġdimin":11042,"Ġguy":11043,"Ġtasked":11044,"Ġproteins":11045,"cut":11046,"ĠAges":11047,"ĠBert":11048,"Ġconcerning":11049,"wald":11050,"Ġdying":11051,"Ġspar":11052,"Ġhoused":11053,"ĠMovie":11054,"Ġescorted":11055,"ĠPierre":11056,"uters":11057,"rift":11058,"rene":11059,"Ġdoors":11060,"Ġdetect":11061,"ĠCP":11062,"Ġassert":11063,"ĠMidd":11064,"hill":11065,"Ġstyl":11066,"lights":11067,"agers":11068,"ovak":11069,"Ġdepicts":11070,"ellar":11071,"Ġepic":11072,"ĠBeh":11073,"ĠFlore":11074,"zing":11075,"Ġinning":11076,"Ġvig":11077,"ĠSpider":11078,"anne":11079,"Ġcircular":11080,"Ġelaborate":11081,"Ġ112":11082,"Ġinnoc":11083,"Ġpursuit":11084,"ĠBaltic":11085,"Ġborrow":11086,"Ġvolunteers":11087,"Ġconcurrent":11088,"ĠIceland":11089,"ĠCer":11090,"Ġgods":11091,"ĠJudge":11092,"sa":11093,"ĠAren":11094,"ĠKrist":11095,"gged":11096,"Ġdinner":11097,"Ġimprisoned":11098,"Ġinhib":11099,"ĠFlow":11100,"ĠUnd":11101,"Ã©n":11102,"ĠManagement":11103,"ÉĻ":11104,"Ġtel":11105,"Ġreass":11106,"ĠCe":11107,"Ġnut":11108,"ĠFish":11109,"ĠFern":11110,"ĠThames":11111,"Ġauthorized":11112,"Ġcollections":11113,"ĠRomney":11114,"Ġwarships":11115,"olar":11116,"ĠNS":11117,"ĠNeb":11118,"ĠRef":11119,"Ġeditions":11120,"Ġcompetitions":11121,"Ġconflicts":11122,"Ġteammate":11123,"ĠTourn":11124,"Ġpursued":11125,"ĠFil":11126,"ĠHearts":11127,"ĠAthens":11128,"Ġ145":11129,"Ġtempo":11130,"Ġ1865":11131,"ÃŃa":11132,"ĠBarbara":11133,"Ġpill":11134,"Ġrevival":11135,"lane":11136,"ĠStein":11137,"Ġfra":11138,"Ġliver":11139,"Ġramp":11140,"ardo":11141,"Ġeventual":11142,"Ġfavourite":11143,"kh":11144,"aco":11145,"Ġpoliticians":11146,"Ġ978":11147,"uction":11148,"ourag":11149,"ĠReagan":11150,"ĠEvil":11151,"Ġharbour":11152,"HS":11153,"tains":11154,"Ġbeliefs":11155,"Ġvirtually":11156,"ĠCode":11157,"ĠCrow":11158,"ĠBask":11159,"Ġopposing":11160,"Ġdrain":11161,"ĠRegional":11162,"ĠMang":11163,"Ġconj":11164,"ĠComedy":11165,"Ġscreenplay":11166,"Ġchemistry":11167,"Ġurged":11168,"ĠNATO":11169,"Ġ159":11170,"Ġmanufacturing":11171,"ĠAgainst":11172,"Ġrenewed":11173,"Ġcam":11174,"ĠBranch":11175,"ĠHunt":11176,"ĠPas":11177,"Ġabroad":11178,"ĠZone":11179,"Ġhandling":11180,"Ġveteran":11181,"ĠRepresentatives":11182,"Ġchase":11183,"Ġcensus":11184,"ĠNancy":11185,"Ġmixture":11186,"Ġcable":11187,"ĠFight":11188,"Ġportrait":11189,"Ġvelocity":11190,"Ġstones":11191,"Ġleaf":11192,"Ġunve":11193,"Ġ117":11194,"cliff":11195,"Ġexamination":11196,"Ġsuspected":11197,"Ġuniversities":11198,"ao":11199,"ĠSonic":11200,"ĠAny":11201,"Ġmedals":11202,"eling":11203,"Ġstolen":11204,"Ġparticipants":11205,"Ġcongress":11206,"isition":11207,"Ġrushing":11208,"ublin":11209,"Ġverte":11210,"Ġpromise":11211,"gow":11212,"Ġlaps":11213,"ĠFace":11214,"Ġspur":11215,"ĠReport":11216,"ĠTribune":11217,"onation":11218,"Ġtrailer":11219,"Ġcow":11220,"roe":11221,"izz":11222,"arest":11223,"Ġcolours":11224,"ĠNova":11225,"Ġpossess":11226,"Ġpromoting":11227,"Ġrendered":11228,"Ġremembered":11229,"Ġcattle":11230,"anim":11231,"Ġthereby":11232,"Ġorganisms":11233,"ando":11234,"ridor":11235,"Ġsharks":11236,"Ġinherited":11237,"mo":11238,"inery":11239,"ĠTru":11240,"ĠChad":11241,"Ġpitcher":11242,"Ġtaste":11243,"Ġapply":11244,"Ġinterven":11245,"ĠSaf":11246,"Ġcomics":11247,"ĠNewcastle":11248,"ĠPortugal":11249,"Ġsor":11250,"itic":11251,"ĠInvest":11252,"Ġcapturing":11253,"ĠErnest":11254,"point":11255,"ĠGran":11256,"ĠBright":11257,"otion":11258,"Ġtrapped":11259,"Ġ450":11260,"Ġdecreased":11261,"Ġloud":11262,"ĠDraft":11263,"Ġprox":11264,"ocal":11265,"Ġdecay":11266,"Ġpositively":11267,"Ġ114":11268,"Ġtracked":11269,"Ġcostume":11270,"Ġbombardment":11271,"Ġtissue":11272,"Ġ118":11273,"ĠConstantinople":11274,"Ġvital":11275,"Ġhopes":11276,"Ġcompositions":11277,"Ġaccidentally":11278,"Ġinhab":11279,"ĠHas":11280,"oba":11281,"Ġrand":11282,"Ġinvaded":11283,"Ġcelebration":11284,"ĠWed":11285,"ĠGlas":11286,"ĠMagic":11287,"occ":11288,"Ġprototype":11289,"Ġblend":11290,"Ġsav":11291,"ilda":11292,"ĠCharlotte":11293,"Ġjuven":11294,"isan":11295,"ĠPersonnel":11296,"Ġoccasional":11297,"mont":11298,"Ġwarned":11299,"Ġmaps":11300,"ĠShah":11301,"Ġtornado":11302,"Ġib":11303,"ĠMi":11304,"quer":11305,"Ġlinks":11306,"erts":11307,"ĠPete":11308,"ĠHeavyweight":11309,"ĠMerced":11310,"Ġhoping":11311,"ĠJosÃ©":11312,"limin":11313,"Ġrains":11314,"Ġ1864":11315,"ĠLiberty":11316,"Ġvariations":11317,"Ġanticipated":11318,"idia":11319,"ĠJoint":11320,"Ġupcoming":11321,"ĠYouth":11322,"icking":11323,"ĠChapel":11324,"ĠLaboratory":11325,"ĠAffairs":11326,"ĠEnvironment":11327,"ampton":11328,"Ġboyfriend":11329,"ovic":11330,"rible":11331,"ĠCornwall":11332,"ĠSaw":11333,"ĠOthers":11334,"áº":11335,"ĠAL":11336,"Ġbomber":11337,"ĠCryst":11338,"Ġlaugh":11339,"ĠVoice":11340,"Ġscandal":11341,"Ġseparation":11342,"ĠAgu":11343,"Ġbatteries":11344,"bing":11345,"Ġdust":11346,"ĠKon":11347,"Ġdozen":11348,"Ġprovisions":11349,"Ġmarking":11350,"Ġgenu":11351,"Ġlaboratory":11352,"vo":11353,"Ġsinking":11354,"Ġrever":11355,"Ġimpressive":11356,"Ġaccessible":11357,"ĠFreedom":11358,"colm":11359,"ĠCinem":11360,"eps":11361,"Ġguests":11362,"Ġhorizont":11363,"fly":11364,"igious":11365,"ulum":11366,"auc":11367,"Ġfires":11368,"ĠSic":11369,"ĠBeth":11370,"ĠRO":11371,"rior":11372,"Ġbiological":11373,"Ġeasier":11374,"Ġnose":11375,"icken":11376,"ĠFilming":11377,"Ġdependent":11378,"Ġnickname":11379,"Î±":11380,"ĠGon":11381,"DI":11382,"hou":11383,"restrial":11384,"ĠHom":11385,"Ġsupports":11386,"Ġpolitician":11387,"agles":11388,"ĠVo":11389,"Ġparliamentary":11390,"ĠFriends":11391,"Ġrandom":11392,"Î¿":11393,"ĠChester":11394,"Ġindigenous":11395,"Ġthreats":11396,"Ġavoided":11397,"ER":11398,"orf":11399,"ĠTerm":11400,"ught":11401,"Ġafford":11402,"Ġconsumption":11403,"Ġlighter":11404,"ĠBapt":11405,"ĠMarines":11406,"ĠLeices":11407,"ĠArmenian":11408,"held":11409,"Ġtherm":11410,"Ġfed":11411,"rogen":11412,"artime":11413,"Ġhandle":11414,"enberg":11415,"Ġprogressed":11416,"ĠDuch":11417,"Ġformula":11418,"Ġeld":11419,"ĠKenneth":11420,"ĠCand":11421,"Ġdeputy":11422,"atsu":11423,"Ġhyper":11424,"Ġbiography":11425,"Ġrestrictions":11426,"Ġfier":11427,"ĠCase":11428,"ĠMembers":11429,"ĠDJ":11430,"ptic":11431,"Ġvolcanic":11432,"Ġcorporate":11433,"var":11434,"ĠCinc":11435,"ĠVick":11436,"ailing":11437,"ĠMalcolm":11438,"ĠProtestant":11439,"ĠOscar":11440,"amics":11441,"orted":11442,"Ġnep":11443,"Ġtruly":11444,"ĠÄĲ":11445,"Ġcash":11446,"ĠTree":11447,"ĠBark":11448,"ĠLP":11449,"Ġimposed":11450,"ĠXX":11451,"ĠMeteorological":11452,"Ġtoxic":11453,"ĠSkin":11454,"amine":11455,"ĠBears":11456,"ĠPeng":11457,"ĠThr":11458,"Ġtrunk":11459,"ĠEnergy":11460,"Ġmixing":11461,"gÃ©":11462,"Ġda":11463,"ĠMult":11464,"ĠLower":11465,"Ġrugby":11466,"Ġparticles":11467,"Ġoccurring":11468,"ĠChamberlain":11469,"ĠPedro":11470,"ĠOrchestra":11471,"Ġfles":11472,"lem":11473,"agg":11474,"Ġusage":11475,"ĠBoulevard":11476,"Ġmurdered":11477,"ĠCena":11478,"Ġproduces":11479,"ĠAntar":11480,"ĠIsaac":11481,"Ġnoticed":11482,"Ġevacuation":11483,"Ġlicense":11484,"ielder":11485,"etta":11486,"Ġcustomers":11487,"changed":11488,"Ġdreadn":11489,"Ġãĥ":11490,"Ġwound":11491,"Ġine":11492,"Ġpor":11493,"Ġcontracts":11494,"Ġdefenders":11495,"ĠMV":11496,"ĠDublin":11497,"ĠChair":11498,"acht":11499,"Ġacre":11500,"racks":11501,"heimer":11502,"ĠERA":11503,"alling":11504,"Ġexile":11505,"Ġmetric":11506,"oples":11507,"ĠThan":11508,"ded":11509,"osy":11510,"iah":11511,"Ġ1862":11512,"Ġcathedral":11513,"ĠTake":11514,"ĠSex":11515,"ĠZero":11516,"Ġ131":11517,"Ġchoir":11518,"Ġlawsuit":11519,"Ġabb":11520,"Ġrelation":11521,"ĠAthletic":11522,"Ġprest":11523,"Ġwake":11524,"ĠAction":11525,"ĠBreak":11526,"Ġ107":11527,"ĠRoom":11528,"ĠCareer":11529,"ĠCyclone":11530,"Ġspeculation":11531,"Ġkiller":11532,"ĠGuild":11533,"Ġordinary":11534,"Ġtimber":11535,"Ġintellectual":11536,"Ġnephew":11537,"Ġdebris":11538,"Ġengineers":11539,"Ġhence":11540,"Ġplates":11541,"ĠSlav":11542,"Ġangry":11543,"ju":11544,"ĠBradley":11545,"Ġdepicting":11546,"ĠGabri":11547,"Ġdisappointed":11548,"ĠWatch":11549,"ĠAltern":11550,"ĠEddie":11551,"Ġcu":11552,"Ġaside":11553,"Ġeastward":11554,"bach":11555,"Ġfab":11556,"ĠGlee":11557,"Ġdevelopments":11558,"Ġthreatening":11559,"Ġkilog":11560,"Ġignored":11561,"Ġconquest":11562,"ĠPel":11563,"emble":11564,"Ġindustries":11565,"ĠContinental":11566,"Ġencounters":11567,"Ġdecrease":11568,"ĠTournament":11569,"hl":11570,"Ġlyrical":11571,"overed":11572,"Ġterritorial":11573,"ĠArchbishop":11574,"Ġthrowing":11575,"Ġcomplicated":11576,"for":11577,"ĠSerbia":11578,"Ġward":11579,"Ġchrom":11580,"ĠLuft":11581,"Ġmechanism":11582,"Ġundertaken":11583,"Ġrevolutionary":11584,"Ġthunderstorm":11585,"Ġmit":11586,"Ġune":11587,"ĠAlberta":11588,"ĠCincinn":11589,"Ġstern":11590,"Ġbreast":11591,"umbered":11592,"Ġvicinity":11593,"alg":11594,"Ġmounts":11595,"ĠFuture":11596,"ĠOrd":11597,"Ġconvicted":11598,"Ġelite":11599,"Ġstrikes":11600,"Ġhumanity":11601,"Ġtouchdowns":11602,"ĠMann":11603,"osion":11604,"Ġremin":11605,"Ġ157":11606,"Ġconfident":11607,"ĠTommy":11608,"Ġchampionships":11609,"Ġconversation":11610,"ĠSpringfield":11611,"Ġå":11612,"itol":11613,"Ġmos":11614,"ieg":11615,"ĠMicha":11616,"ĠMetro":11617,"Ġexhibit":11618,"icing":11619,"entieth":11620,"ĠVilla":11621,"ĠCollection":11622,"Ġ220":11623,"Ġfocuses":11624,"onial":11625,"Ġpenn":11626,"olia":11627,"ĠGates":11628,"Ġunt":11629,"Ġmammals":11630,"Ġinaugural":11631,"Ġcontacted":11632,"ĠJoan":11633,"Ġentert":11634,"Ġlacking":11635,"ĠTint":11636,"Ġgif":11637,"Ġrealistic":11638,"Ġsuspension":11639,"Ġpreserve":11640,"Ġboost":11641,"Ġfarmers":11642,"iture":11643,"itime":11644,"ĠPlace":11645,"ĠGibral":11646,"Ġarose":11647,"encer":11648,"ĠVeg":11649,"ĠShep":11650,"Ġconstantly":11651,"Ġfacil":11652,"ĠMuslims":11653,"etary":11654,"Ġmetre":11655,"Ġhelicopter":11656,"ĠPros":11657,"Ġstim":11658,"iked":11659,"Ġposts":11660,"uka":11661,"ĠStudies":11662,"Ġdiamond":11663,"ĠTir":11664,"Ġinfection":11665,"ĠYugoslavia":11666,"Ġtools":11667,"Ġpatri":11668,"Ġ1840":11669,"ĠMarshal":11670,"bel":11671,"Ġinfer":11672,"ocol":11673,"ellers":11674,"Ġvoters":11675,"ĠCanu":11676,"ĠChet":11677,"omed":11678,"ĠKin":11679,"Ġfeathers":11680,"Ġcollaborated":11681,"Ġpredominantly":11682,"ĠMalta":11683,"liminary":11684,"ĠUk":11685,"Ġasserted":11686,"Ġphoto":11687,"ĠFriedrich":11688,"Ġthorough":11689,"ĠWagner":11690,"asp":11691,"Ġthro":11692,"ĠJake":11693,"Ġdesper":11694,"ĠShiva":11695,"iga":11696,"ĠPay":11697,"ĠLS":11698,"ortion":11699,"ĠGibraltar":11700,"ĠMaine":11701,"ĠRear":11702,"rolled":11703,"Ġpatient":11704,"Ġabsorbed":11705,"ĠHood":11706,"ĠKaz":11707,"rank":11708,"Ġcentered":11709,"enz":11710,"Ġreleasing":11711,"Ġcastles":11712,"ischer":11713,"oirs":11714,"quiry":11715,"Ġholes":11716,"ĠHull":11717,"Ġuser":11718,"ĠReed":11719,"ĠRobin":11720,"Ġtune":11721,"Ġmad":11722,"ĠFly":11723,"Ġgrows":11724,"Ġremoving":11725,"Ġpeninsula":11726,"ĠWaters":11727,"ĠCincinnati":11728,"ĠComics":11729,"ĠParks":11730,"ĠAncient":11731,"ĠTaiwan":11732,"ĠRound":11733,"ework":11734,"ubble":11735,"Ġillustrated":11736,"Ġpig":11737,"ĠAngelou":11738,"Ġapolog":11739,"Ġexplanation":11740,"Hg":11741,"LA":11742,"Ġknows":11743,"Ġspeeds":11744,"Ġsustain":11745,"ĠDud":11746,"auge":11747,"Ġcompiled":11748,"assy":11749,"Ġresid":11750,"Ġ126":11751,"Ġ132":11752,"Ġantib":11753,"WA":11754,"ĠMaced":11755,"Ġretrie":11756,"ĠHispan":11757,"regular":11758,"Ġbreeds":11759,"ĠNormandy":11760,"Ġcanceled":11761,"Ġisn":11762,"Ġsituations":11763,"Ġbowl":11764,"ĠCort":11765,"ennial":11766,"Ġindependently":11767,"Ġrelieved":11768,"Ġenorm":11769,"Ġencom":11770,"ĠLords":11771,"Ġsheep":11772,"ahl":11773,"Ġ1887":11774,"Ġlib":11775,"ĠBrid":11776,"Ġroadway":11777,"ĠVegas":11778,"Ġlover":11779,"ritic":11780,"Ġ119":11781,"asury":11782,"ĠShield":11783,"Ġpleased":11784,"ĠPokÃ©":11785,"ĠAlliance":11786,"ĠAfghanistan":11787,"ĠKill":11788,"Ġoffshore":11789,"ĠTwitter":11790,"enburg":11791,"Ġclergy":11792,"Ġmarched":11793,"ĠMadison":11794,"ĠOlivia":11795,"Ġlayers":11796,"rels":11797,"ĠVIII":11798,"Ã´":11799,"Ġaest":11800,"ĠEdmund":11801,"Ġ1863":11802,"Ġlocomotives":11803,"music":11804,"ĠEsc":11805,"Ġoutstanding":11806,"Ġviewing":11807,"Ġprosper":11808,"hall":11809,"oi":11810,"ulates":11811,"Ġcouldn":11812,"Ġ1886":11813,"ĠConservative":11814,"Ġpaying":11815,"ĠSad":11816,"ĠRush":11817,"Ġarena":11818,"Ġblast":11819,"Ġgenres":11820,"ĠBurke":11821,"oom":11822,"uber":11823,"icular":11824,"ĠEld":11825,"Ġexpanding":11826,"ĠTechnology":11827,"Ġclosure":11828,"Ġvarying":11829,"£o":11830,"ĠLud":11831,"Ġbackst":11832,"ringe":11833,"ĠGregory":11834,"gus":11835,"Ġmild":11836,"Ġbutter":11837,"overty":11838,"ĠLeeds":11839,"found":11840,"Ġmask":11841,"Ġcolored":11842,"instein":11843,"Ġsentiment":11844,"Ġdisappeared":11845,"ĠFormer":11846,"umberland":11847,"ĠSchumacher":11848,"hart":11849,"ĠBrooklyn":11850,"Ġbapt":11851,"avan":11852,"izard":11853,"ĠRevolutionary":11854,"bu":11855,"Ġperc":11856,"Ġregulations":11857,"Ġreporting":11858,"Ġsuggestion":11859,"Ġfant":11860,"ĠJNA":11861,"Ġatop":11862,"Ġspir":11863,"ribution":11864,"Ġcelebrate":11865,"ĠJulian":11866,"gary":11867,"ĠSor":11868,"Ġgrid":11869,"ĠOrton":11870,"Ġarmoured":11871,"ĠMercury":11872,"ĠCond":11873,"imony":11874,"aneous":11875,"ĠSerge":11876,"Ġdropping":11877,"Ġasc":11878,"issioned":11879,"onnie":11880,"Ġfungus":11881,"ĠCou":11882,"ĠCry":11883,"Ġconspiracy":11884,"Ġinducted":11885,"ĠËĪ":11886,"ĠTalk":11887,"ĠSoph":11888,"ĠBurg":11889,"ĠHubb":11890,"ipher":11891,"Ġfaculty":11892,"ĠPrinceton":11893,"ĠCut":11894,"acular":11895,"ĠDennis":11896,"ishn":11897,"Ġanthem":11898,"Ġattraction":11899,"ĠBrowns":11900,"ĠMcKinley":11901,"ĠAub":11902,"ĠChem":11903,"ĠHus":11904,"ĠNation":11905,"ĠKra":11906,"Ġreporter":11907,"ĠHelen":11908,"Ġromance":11909,"zes":11910,"ĠRus":11911,"Ġflour":11912,"Ġnevertheless":11913,"Ġcompanion":11914,"Ġeagle":11915,"Ġconced":11916,"Ġwitnesses":11917,"Ġblamed":11918,"gett":11919,"ĠTigers":11920,"feld":11921,"Ġtent":11922,"leted":11923,"ĠChang":11924,"Ġsubmer":11925,"Ġswept":11926,"ĠÃī":11927,"Ġoxid":11928,"ĠOrganization":11929,"Ġaf":11930,"ĠNathan":11931,"Ġorganic":11932,"Ġfundamental":11933,"ĠMLB":11934,"Ġpseud":11935,"Ġremote":11936,"ĠLeo":11937,"Ġrepris":11938,"Ġpublicity":11939,"Ġstored":11940,"odium":11941,"Ġpositioned":11942,"ĠHistorical":11943,"Ġsubmarines":11944,"flow":11945,"inated":11946,"Ġwhatever":11947,"ĠStal":11948,"Ġparking":11949,"Ġaqu":11950,"Ġsulf":11951,"ĠMut":11952,"ĠVern":11953,"ĠMusical":11954,"ĠCoal":11955,"ĠGhost":11956,"bie":11957,"ĠEC":11958,"Ġretreated":11959,"Ġannex":11960,"Ġmail":11961,"omon":11962,"Ġstability":11963,"Ġverses":11964,"ĠBarcel":11965,"ĠMonth":11966,"Ġlung":11967,"Ġ1884":11968,"Ġfortifications":11969,"Ġfract":11970,"ĠLamb":11971,"usters":11972,"Ġprogressive":11973,"Ġfocusing":11974,"Ġtargeted":11975,"Ġshelter":11976,"Ġcondemned":11977,"pin":11978,"hend":11979,"ĠinHg":11980,"ĠHubbard":11981,"Ġnoise":11982,"ĠSteam":11983,"ĠNASA":11984,"Ġgentle":11985,"Ġswing":11986,"ĠGlasgow":11987,"eness":11988,"ĠFather":11989,"Ġmonit":11990,"Ġirregular":11991,"Ġdrunk":11992,"lett":11993,"Ġflown":11994,"Ġcorresponding":11995,"ĠCanucks":11996,"rity":11997,"yan":11998,"Ġ103":11999,"eda":12000,"ĠTests":12001,"Ġrecruit":12002,"Ġcurve":12003,"Ġresignation":12004,"Ġdisbanded":12005,"ĠIsle":12006,"ĠOpera":12007,"ĠDevil":12008,"Ġfossils":12009,"ĠPolitical":12010,"DA":12011,"cell":12012,"ĠPick":12013,"ĠNass":12014,"Ġrab":12015,"ĠIsab":12016,"Ġdetected":12017,"ĠNad":12018,"qual":12019,"ĠHey":12020,"Ġconfused":12021,"Ġconvince":12022,"Ġcruise":12023,"Ġwinners":12024,"Ġencourag":12025,"Ġmelod":12026,"Ġtorpedoes":12027,"Ġmagnetic":12028,"Ġtelephone":12029,"Ġchallenging":12030,"ĠSA":12031,"areness":12032,"Ġpreceding":12033,"ĠMak":12034,"Ġroster":12035,"ĠSmack":12036,"Ġrebounds":12037,"ĠHolland":12038,"arded":12039,"Ġcha":12040,"Ġmachines":12041,"Ġmentions":12042,"ËĲ":12043,"Ġquoted":12044,"Ġbrings":12045,"ĠSolar":12046,"ĠPhillies":12047,"ĠFifth":12048,"Ġrice":12049,"ĠInside":12050,"ĠMontana":12051,"Ġferry":12052,"Ġbore":12053,"ĠInsp":12054,"Ġscrap":12055,"Ġregiments":12056,"Ġstudios":12057,"Ġinsurance":12058,"Ġworse":12059,"Ġterminal":12060,"Ġcalculated":12061,"Ġfault":12062,"elin":12063,"ĠTheodore":12064,"Ġdirecting":12065,"ĠHerbert":12066,"Ġtourist":12067,"Ġconcepts":12068,"Ġsolely":12069,"Ġdiversity":12070,"ĠRI":12071,"Ġtriumph":12072,"Ġcreature":12073,"ĠBCE":12074,"auded":12075,"ĠCeltic":12076,"ĠTintin":12077,"iki":12078,"ĠMillennium":12079,"ĠKil":12080,"Ġthanks":12081,"roscop":12082,"Ġdarker":12083,"ĠMorning":12084,"ishops":12085,"Ġrotation":12086,"ĠWestminster":12087,"Ġjudicial":12088,"isk":12089,"Ġnice":12090,"igation":12091,"ĠStrong":12092,"ĠSeb":12093,"Ġ1877":12094,"phal":12095,"Ġhistorically":12096,"onso":12097,"Ġhide":12098,"Ġ138":12099,"Ġfavored":12100,"ĠAdventure":12101,"atty":12102,"ĠCEO":12103,"Ġtap":12104,"Ġfo":12105,"ĠNam":12106,"avian":12107,"Ġexamined":12108,"ĠEpis":12109,"Ġscholarship":12110,"ĠMercedes":12111,"ĠWel":12112,"Ġjersey":12113,"overy":12114,"hentic":12115,"ourable":12116,"inter":12117,"ĠRav":12118,"ĠBrah":12119,"ĠDenver":12120,"Ġmyself":12121,"ĠPoe":12122,"Ġjew":12123,"Ġ1876":12124,"Ġzero":12125,"Ġgear":12126,"ĠYard":12127,"Ġ122":12128,"ĠAustro":12129,"Ġconfig":12130,"ĠBarn":12131,"ĠBasketball":12132,"ĠMig":12133,"umi":12134,"ewise":12135,"iors":12136,"Ġcotton":12137,"ĠAthen":12138,"Ġ230":12139,"ĠExpl":12140,"Ġbattlefield":12141,"ĠCox":12142,"ampa":12143,"Ġ116":12144,"ĠAlbany":12145,"Ġprompting":12146,"Ġsteadily":12147,"ht":12148,"Ġwartime":12149,"ĠGlou":12150,"Ġballs":12151,"Ġacclaimed":12152,"Ġreconstruction":12153,"sis":12154,"ĠBour":12155,"Ġsharing":12156,"Ġtrio":12157,"Ġmessages":12158,"nda":12159,"ĠOcc":12160,"Ġrounded":12161,"Ġwalked":12162,"ĠTheater":12163,"ĠPercy":12164,"Ġmeasuring":12165,"ĠSalv":12166,"ĠRonald":12167,"Ġmonastery":12168,"ĠSri":12169,"lude":12170,"Ġ129":12171,"Ġspacecraft":12172,"Ġghost":12173,"Ġelevated":12174,"ĠGothic":12175,"Ġmasc":12176,"works":12177,"ĠAdditional":12178,"ĠBulgarian":12179,"Ġscreens":12180,"ĠCany":12181,"ĠLed":12182,"Ġ134":12183,"Ġtroop":12184,"Ġconnects":12185,"Ġlinear":12186,"Ġeligible":12187,"acer":12188,"ĠHok":12189,"ĠRivers":12190,"Ġagencies":12191,"Ġguards":12192,"Ġagrees":12193,"Ã¶r":12194,"atisf":12195,"Ġflower":12196,"ĠCurrent":12197,"Ġgusts":12198,"Ġoct":12199,"ĠBris":12200,"ĠVerm":12201,"Ġrouting":12202,"Ġtrig":12203,"Ġdecisive":12204,"Ġthemed":12205,"Ġdistinction":12206,"Ġrefuses":12207,"Ġcurved":12208,"Ġpostp":12209,"Ġcommitment":12210,"rians":12211,"Ġpresents":12212,"ĠOttawa":12213,"ĠCarlos":12214,"á»ĩ":12215,"Music":12216,"lined":12217,"aton":12218,"arians":12219,"Ġexterior":12220,"Ġradius":12221,"Ġmotif":12222,"Ġaccomplished":12223,"ĠNevada":12224,"opard":12225,"aku":12226,"Ġkids":12227,"ĠChuck":12228,"Ġopined":12229,"Ġclouds":12230,"vor":12231,"Ġcemetery":12232,"Ġstall":12233,"izers":12234,"Ġarguments":12235,"Ġconducting":12236,"Ġrevenge":12237,"cont":12238,"Ġcosm":12239,"Ġtough":12240,"omical":12241,"ĠBerm":12242,"ĠPack":12243,"Ġconvey":12244,"Ġcomed":12245,"Ġincidents":12246,"Ġhosp":12247,"ĠSquad":12248,"Ġposter":12249,"Ġphysically":12250,"Ġwalks":12251,"ĠPokÃ©mon":12252,"atar":12253,"Ġecho":12254,"ĠRosen":12255,"ĠDuc":12256,"ĠAbra":12257,"ĠTerritory":12258,"Ġproclaimed":12259,"ĠBarcelona":12260,"eta":12261,"olan":12262,"Ġcreatures":12263,"Ġloose":12264,"Ġkilometers":12265,"ĠCaes":12266,"ĠMichaels":12267,"istical":12268,"abad":12269,"ĠMarl":12270,"aults":12271,"Ġparticipating":12272,"Ġconsequence":12273,"Ġintegrated":12274,"Ġritual":12275,"Ġencompass":12276,"ĠFun":12277,"iffer":12278,"Ġspell":12279,"Ġ1830":12280,"unge":12281,"Ġindirect":12282,"ĠArc":12283,"Ġfinest":12284,"ĠMega":12285,"Ġrebel":12286,"sch":12287,"Ġcentimet":12288,"Ġcanon":12289,"ettes":12290,"Ġwidth":12291,"Ġ1875":12292,"ĠMilan":12293,"ĠCardinals":12294,"Ġvenues":12295,"Ġintend":12296,"ĠWis":12297,"Ġscout":12298,"ĠEnix":12299,"Ġrunner":12300,"Ġtouc":12301,"Ġchann":12302,"reeks":12303,"ĠMetac":12304,"Ġtheaters":12305,"itars":12306,"ĠHi":12307,"Ġcomplimented":12308,"Ġmarg":12309,"Ġdemographic":12310,"Ġlesser":12311,"Ġproperly":12312,"Ġceremonies":12313,"ĠTas":12314,"Ġlakes":12315,"aba":12316,"Ġspots":12317,"Ġunh":12318,"Ġenhanced":12319,"Ġreminisc":12320,"ighed":12321,"Ġprince":12322,"anka":12323,"Ġcontribute":12324,"ĠChurchill":12325,"Ġextends":12326,"Ġborough":12327,"ĠDrake":12328,"Ġdeliberately":12329,"Ġmansion":12330,"ubs":12331,"ĠColin":12332,"ĠParkway":12333,"Ġbowled":12334,"arthy":12335,"Ġtelesc":12336,"ĠFoster":12337,"season":12338,"Ġcontrad":12339,"Ġpeoples":12340,"ĠParaly":12341,"ĠRaymond":12342,"Ġmartial":12343,"bi":12344,"Ġgram":12345,"ĠRBI":12346,"Ġinsuff":12347,"Ġvaries":12348,"Ġ1883":12349,"ĠRomanian":12350,"ĠArchae":12351,"Ġpreparations":12352,"rium":12353,"ĠHein":12354,"Ġremake":12355,"Ġheavier":12356,"ĠBod":12357,"Ġsouthwestern":12358,"Ä«":12359,"asia":12360,"Ġharsh":12361,"ĠWings":12362,"Ġweakness":12363,"Ġinstructions":12364,"Ġintermediate":12365,"Ġministers":12366,"ĠEmma":12367,"ĠOperations":12368,"ĠManuel":12369,"Ġonwards":12370,"ĠComputer":12371,"Ġtransformed":12372,"Down":12373,"Ġpossessed":12374,"Ġ1881":12375,"Ġplayable":12376,"Ġcoaches":12377,"Ġcontinental":12378,"Ġupdated":12379,"Ġprospect":12380,"herent":12381,"Ġhurt":12382,"Ġachievements":12383,"Ġoptim":12384,"lake":12385,"rush":12386,"Ġfru":12387,"ĠRNA":12388,"ĠSpeed":12389,"ĠCircle":12390,"ĠMiddles":12391,"ĠSmackDown":12392,"GM":12393,"ĠVoy":12394,"Ġrook":12395,"ĠShin":12396,"ĠSciences":12397,"ashire":12398,"ĠWeather":12399,"Ġsensitive":12400,"Ġinitiative":12401,"Ġwit":12402,"ĠâĻ":12403,"Ġyd":12404,"Ġairborne":12405,"Ġlogo":12406,"HC":12407,"yc":12408,"inus":12409,"ĠAlam":12410,"Ġoutcome":12411,"Ġrider":12412,"ĠDiamond":12413,"Ġtransmission":12414,"ĠBlair":12415,"ĠBelie":12416,"ĠVenice":12417,"Ġpropaganda":12418,"Ġaided":12419,"ĠTotal":12420,"Ġcritically":12421,"ĠNorthwest":12422,"Ġhomosexual":12423,"Ġbin":12424,"chw":12425,"ĠRichardson":12426,"Ġconsideration":12427,"ĠJamaica":12428,"Ġallied":12429,"Ġvariable":12430,"Ġmoist":12431,"Ġconsciousness":12432,"ĠParalymp":12433,"ĠBass":12434,"ogs":12435,"Ġdisabled":12436,"appa":12437,"ĠPowell":12438,"Ġvegetation":12439,"Ġautobiography":12440,"cht":12441,"ĠUnit":12442,"Ġ1869":12443,"Ġorchestral":12444,"agi":12445,"Ġ151":12446,"ĠCalgary":12447,"Ġtourists":12448,"alties":12449,"ironments":12450,"Ġemerging":12451,"Ġdeposits":12452,"Ġtom":12453,"Ġreh":12454,"assic":12455,"actic":12456,"Ġmonster":12457,"Ġdepiction":12458,"Ġlandmark":12459,"ĠComposition":12460,"Ġestimate":12461,"ĠContem":12462,"ĠDuncan":12463,"Ġexercises":12464,"ĠLancashire":12465,"Ġspite":12466,"Ġ128":12467,"ĠFerdin":12468,"ĠArena":12469,"ĠIb":12470,"Ġunanim":12471,"Ġworker":12472,"ĠBody":12473,"ĠFa":12474,"Ġpunishment":12475,"Ġpermanently":12476,"ĠHenderson":12477,"RS":12478,"core":12479,"arus":12480,"Ġstom":12481,"Ġ1866":12482,"Ġconsistently":12483,"Ġmunicipal":12484,"Ġroutine":12485,"ĠDelta":12486,"ĠFloyd":12487,"Ġnortheastern":12488,"Ġcomprising":12489,"Ġborders":12490,"Ġepit":12491,"Ġpresidency":12492,"Ġlatest":12493,"Ġdoctrine":12494,"Ġascend":12495,"ĠIsles":12496,"Ġamphib":12497,"ĠPsych":12498,"Ġstaged":12499,"Ġpref":12500,"rington":12501,"Ġdamaging":12502,"Ġassassination":12503,"Ġion":12504,"Ġperformers":12505,"atorial":12506,"Ġsummon":12507,"ĠMedic":12508,"Ġmanaging":12509,"Ġachievement":12510,"Ġenvironments":12511,"Ġjournalists":12512,"Ġsearching":12513,"Ġdelegates":12514,"Ġsubtropical":12515,"Ġdock":12516,"ĠAqu":12517,"riages":12518,"ĠXI":12519,"Ġrevealing":12520,"Ġpayment":12521,"Ġsailors":12522,"ĠCu":12523,"ĠCarn":12524,"Ġhonors":12525,"Ġbelonging":12526,"ĠPlanet":12527,"RC":12528,"ĠMills":12529,"Ġcomplement":12530,"Ġwitnessed":12531,"ĠFrances":12532,"ĠBerg":12533,"Ġmysterious":12534,"Ġinput":12535,"ĠConserv":12536,"ĠEllen":12537,"Ġpsychiat":12538,"Ġencourage":12539,"ĠCrawford":12540,"Ġmarsh":12541,"ĠRange":12542,"rip":12543,"ĠCloud":12544,"Ġ750":12545,"ĠUsing":12546,"Ġodd":12547,"Ġarchaeological":12548,"Ġconfer":12549,"Ġseal":12550,"ĠChan":12551,"ĠSprings":12552,"Ġmilk":12553,"Ġpriority":12554,"ĠRodrig":12555,"Ġenlar":12556,"Ġreluctant":12557,"ĠCanyon":12558,"ĠPon":12559,"Ġphilosopher":12560,"Ġphenomenon":12561,"zig":12562,"Ġgates":12563,"Ġsilent":12564,"Ġpreventing":12565,"Brien":12566,"gor":12567,"omys":12568,"ĠDj":12569,"Ġdispatched":12570,"Ġunsuccessfully":12571,"ĠLeicester":12572,"olars":12573,"Ġ124":12574,"arma":12575,"Ġanarch":12576,"iang":12577,"Ġactively":12578,"Ġargue":12579,"Ġventure":12580,"ĠTab":12581,"ido":12582,"ĠVic":12583,"Ġversus":12584,"Ġbelonged":12585,"Ġhypothesis":12586,"Ġmant":12587,"Ġplum":12588,"ĠMarqu":12589,"ĠGrove":12590,"Ġlengths":12591,"Ġcoaching":12592,"ĠVeronica":12593,"Ġswitched":12594,"ĠCrystal":12595,"ĠFood":12596,"ĠTelegraph":12597,"Ġicon":12598,"ĠPalestine":12599,"isations":12600,"Ġpoverty":12601,"ĠTib":12602,"Ġgest":12603,"ĠPra":12604,"Ġstrange":12605,"Ġfinance":12606,"Ġcorruption":12607,"Ġeighteen":12608,"Ġfrigate":12609,"Ġroot":12610,"Ġlistening":12611,"Ġceiling":12612,"Ġdisputed":12613,"Ġawareness":12614,"Ġdistinguish":12615,"Ġexecutives":12616,"ĠTucker":12617,"adows":12618,"ĠMile":12619,"idge":12620,"ĠPunk":12621,"rained":12622,"assed":12623,"Ġscientist":12624,"ĠSH":12625,"Ġintroduce":12626,"Ġ1882":12627,"ijing":12628,"oric":12629,"asi":12630,"ĠMull":12631,"ĠFischer":12632,"Ġvamp":12633,"Ġabst":12634,"Ġdirections":12635,"Ġcontributing":12636,"Ġmechanics":12637,"ĠHeadquarters":12638,"Ġov":12639,"stown":12640,"immer":12641,"Ġshaft":12642,"Ġexploration":12643,"ĠAssist":12644,"Ġ1871":12645,"Ġ1873":12646,"Ġexpectations":12647,"eches":12648,"Ġrational":12649,"ĠAnat":12650,"ĠFilms":12651,"Ġadjust":12652,"Ġhoney":12653,"ĠWhy":12654,"ĠRegion":12655,"Ġprocedure":12656,"Tunes":12657,"lex":12658,"Ġwhales":12659,"Ġmetals":12660,"Ġinternationally":12661,"Ġsib":12662,"ĠCA":12663,"ĠFur":12664,"Ġformations":12665,"Ġcarved":12666,"Ġphosph":12667,"ĠBea":12668,"ĠPlat":12669,"rews":12670,"boat":12671,"ĠKepler":12672,"Ġmolecular":12673,"ĠPly":12674,"ĠFlanders":12675,"usty":12676,"nery":12677,"Ġsurpassed":12678,"Ġnaturally":12679,"rud":12680,"asaki":12681,"Ġmbar":12682,"Ġ1867":12683,"Ġobjectives":12684,"ĠIntellig":12685,"Ġleagues":12686,"Ġsheet":12687,"ĠSeas":12688,"Ġguitars":12689,"Ġadvocated":12690,"Ġimproving":12691,"Ġdimensional":12692,"Ġmystery":12693,"BO":12694,"Ġsaving":12695,"ĠPine":12696,"ĠTruman":12697,"Ġtribut":12698,"ĠUB":12699,"Ġdesired":12700,"Ġprivile":12701,"ĠHass":12702,"Ġaccus":12703,"Ġshipped":12704,"ĠCommons":12705,"ĠTrue":12706,"Ġreop":12707,"ĠHil":12708,"ulture":12709,"Ġsubmerged":12710,"ĠSyl":12711,"Ġunrel":12712,"Ġprocessing":12713,"Ġdiscussing":12714,"Ġabundant":12715,"ĠDudley":12716,"Ãł":12717,"Ġconvert":12718,"istocr":12719,"Ġremind":12720,"Ġrequirement":12721,"Ġoverwhelming":12722,"Ġstaying":12723,"ierra":12724,"Ġeleph":12725,"Ġ1878":12726,"ĠStandard":12727,"Ġcubic":12728,"Ġtasks":12729,"erness":12730,"Ġ137":12731,"Ġtemples":12732,"Ġacceptance":12733,"ĠMasters":12734,"Ġreson":12735,"Ġassociate":12736,"ĠDesert":12737,"Ã¨re":12738,"Ġcrucial":12739,"waffe":12740,"Ġdive":12741,"ouch":12742,"Ġ202":12743,"ogg":12744,"Ġhorsepower":12745,"ĠWatson":12746,"eded":12747,"Ġcro":12748,"amation":12749,"ĠMail":12750,"ĠKy":12751,"ĠVlad":12752,"ĠNewman":12753,"ĠBeijing":12754,"ĠDeputy":12755,"Ġpartners":12756,"angered":12757,"ĠCommerc":12758,"ĠExped":12759,"ĠMalay":12760,"ĠByzant":12761,"ĠAdela":12762,"Ġexplored":12763,"Ġgenes":12764,"ĠMcCarthy":12765,"acking":12766,"Ġestates":12767,"Ġblockade":12768,"Ġcomprised":12769,"Ġpump":12770,"Ġhaz":12771,"ĠRaid":12772,"Ġspeculated":12773,"Ġauthentic":12774,"Ġkeyboard":12775,"Ġrefugees":12776,"Ġnervous":12777,"Ġcameo":12778,"Ġcomposers":12779,"Ġopinions":12780,"ĠGibson":12781,"Ġchannels":12782,"Ġunre":12783,"ĠTrinity":12784,"Ġcollecting":12785,"Ġmemb":12786,"Ġadequ":12787,"Ġjaw":12788,"Ġresemble":12789,"Ġfragments":12790,"Ġnavigation":12791,"GB":12792,"ĠBran":12793,"ĠEagle":12794,"Ġperf":12795,"Ġloaded":12796,"Ġgran":12797,"utely":12798,"ĠRif":12799,"isting":12800,"ĠColomb":12801,"Ġsuffer":12802,"Ġaveraged":12803,"Ġfemin":12804,"Ġphotos":12805,"Ġundertook":12806,"CO":12807,"inqu":12808,"imer":12809,"ĠClif":12810,"suing":12811,"ĠiTunes":12812,"Ġimmigrants":12813,"utter":12814,"ĠAlpha":12815,"heads":12816,"Ġrepublic":12817,"Ġgenera":12818,"ĠGuadal":12819,"ĠSurv":12820,"Ġhabitats":12821,"ĠCulture":12822,"ĠProfessional":12823,"Ġturbines":12824,"Ġpercussion":12825,"elia":12826,"ĠMeyer":12827,"ĠSche":12828,"Ġwhale":12829,"avil":12830,"Ġseeds":12831,"Ġposthum":12832,"Ġcompromise":12833,"Ġants":12834,"Ġrushed":12835,"Ġfaction":12836,"Ġcomplaints":12837,"Ġmanufactured":12838,"Ġbench":12839,"rehensive":12840,"ĠAaron":12841,"ĠMick":12842,"thlete":12843,"opol":12844,"Ġassets":12845,"ĠMonster":12846,"lia":12847,"rection":12848,"Ġsic":12849,"Ġbars":12850,"Ġmetall":12851,"ĠAngle":12852,"Ġhomeless":12853,"Ġnetworks":12854,"ho":12855,"ĠMobile":12856,"ĠLuther":12857,"Ġrepet":12858,"Ġconsequences":12859,"Ġlesb":12860,"wyn":12861,"Ġstair":12862,"Ġmanages":12863,"Ġunderwater":12864,"ĠMetacritic":12865,"orig":12866,"employ":12867,"Ġcoastline":12868,"ĠWellington":12869,"PS":12870,"Ġgauge":12871,"Ġensuing":12872,"Ġsummar":12873,"Ġdissolved":12874,"ĠAppro":12875,"Ġpsychological":12876,"Ġreconstruct":12877,"Ġabsolute":12878,"ĠMethod":12879,"ĠBaptist":12880,"amped":12881,"Ġbuff":12882,"Ġsymbols":12883,"iggins":12884,"Ġeruption":12885,"Ġemig":12886,"Ġcontempor":12887,"Ġgoddess":12888,"Ġhonorary":12889,"otypes":12890,"ĠLuftwaffe":12891,"di":12892,"mother":12893,"ĠWant":12894,"oves":12895,"Ġups":12896,"Ġimprov":12897,"Ġsymph":12898,"ographed":12899,"ĠBermuda":12900,"Ġconsensus":12901,"ugs":12902,"Ġlengthy":12903,"ĠTimber":12904,"ĠShelley":12905,"iden":12906,"Ġrelied":12907,"Ġultimate":12908,"yll":12909,"Ġcave":12910,"unar":12911,"Ġvariant":12912,"ĠMonroe":12913,"Ġlemurs":12914,"fr":12915,"Ãª":12916,"Ġadds":12917,"Ġbrut":12918,"Ġloyalty":12919,"cour":12920,"Ġol":12921,"Ġfears":12922,"ĠCool":12923,"ĠMC":12924,"Ġsingers":12925,"otto":12926,"ĠUrban":12927,"ĠKem":12928,"Ġsignals":12929,"Ġintact":12930,"Ġlandings":12931,"Ġqualities":12932,"Ġreserves":12933,"ĠRPG":12934,"Ġfraud":12935,"Ġunveiled":12936,"ĠAguiler":12937,"icus":12938,"olith":12939,"ĠHerm":12940,"through":12941,"ylum":12942,"Ġ1872":12943,"ĠWoods":12944,"Ġdisappoint":12945,"ĠMachine":12946,"Ġeldest":12947,"ĠCM":12948,"ĠShar":12949,"ikes":12950,"ĠSelena":12951,"Ġteachers":12952,"Ġassessment":12953,"ema":12954,"Ġaristocr":12955,"ĠShan":12956,"Ġrocket":12957,"Ġ1868":12958,"ĠOtto":12959,"ĠAguilera":12960,"ĠNotable":12961,"Ġflesh":12962,"Ġduck":12963,"usive":12964,"ĠMarx":12965,"Ġdefenses":12966,"Ġambassador":12967,"Ġinteractions":12968,"Ġdoctors":12969,"ĠHat":12970,"ovsky":12971,"Ġamid":12972,"Ġmillions":12973,"ĠHenri":12974,"ĠEngineering":12975,"Ġbattlecruisers":12976,"AL":12977,"ĠRah":12978,"Ġemotions":12979,"Ġspectators":12980,"ĠMom":12981,"ĠChoice":12982,"Ġdelight":12983,"Ġliterally":12984,"Ġprinting":12985,"Ġgrossed":12986,"ĠVarious":12987,"Ġbatsman":12988,"orge":12989,"eward":12990,"Ġsear":12991,"Ġcomparing":12992,"Ġtradem":12993,"Ġessay":12994,"Ġpounder":12995,"ĠWolver":12996,"Ġowing":12997,"Ġgam":12998,"Ġweighed":12999,"Ġtwentieth":13000,"Ġsongwriting":13001,"igo":13002,"ĠPi":13003,"Ġcostumes":13004,"Ġlifted":13005,"ĠEllis":13006,"Ġchlor":13007,"Ġclip":13008,"ĠFlames":13009,"licted":13010,"ĠFemale":13011,"Ġenormous":13012,"stad":13013,"imity":13014,"ĠEsp":13015,"ebe":13016,"auna":13017,"ĠCabinet":13018,"Ġstabil":13019,"ĠWool":13020,"ĠStage":13021,"Ġengaging":13022,"Ġintelligent":13023,"Ġexplosive":13024,"Ġbacteria":13025,"ĠDakota":13026,"cock":13027,"Ġrally":13028,"Ġinterf":13029,"aurus":13030,"Ġrent":13031,"edar":13032,"star":13033,"iri":13034,"ĠFab":13035,"Ġdealt":13036,"ĠLeigh":13037,"Ġtrips":13038,"Ġrevived":13039,"ĠWrest":13040,"ĠChin":13041,"Ġpolitically":13042,"Ġappealed":13043,"monton":13044,"Ġinstructed":13045,"Ġpatrols":13046,"ĠRenaissance":13047,"ci":13048,"uits":13049,"ĠMoney":13050,"ĠPent":13051,"ĠGenesis":13052,"issa":13053,"Ġstrings":13054,"Ġinsufficient":13055,"ĠExpedition":13056,"Ġhier":13057,"Ġdeals":13058,"ĠMVP":13059,"dam":13060,"Ġtensions":13061,"iche":13062,"ĠMk":13063,"keley":13064,"Ġtelev":13065,"ĠNewport":13066,"Ġrelating":13067,"ĠNept":13068,"Ġreader":13069,"Ġinstrumentation":13070,"Ġhorizontal":13071,"Ġstroke":13072,"ĠLore":13073,"Ġenrolled":13074,"ĠDrum":13075,"ĠSoviets":13076,"ĠPhillips":13077,"ĠChandler":13078,"ĠAdelaide":13079,"Ġsuited":13080,"Ġdigit":13081,"ĠMaxwell":13082,"Ġdiseases":13083,"Ġbitter":13084,"Ġgraphic":13085,"ĠWWF":13086,"orus":13087,"Ġcats":13088,"ĠHanc":13089,"bery":13090,"Ġsubordin":13091,"nal":13092,"Ġhurricanes":13093,"Ġliv":13094,"Ġanx":13095,"endar":13096,"Ġwoods":13097,"hand":13098,"ĠSans":13099,"ĠRiley":13100,"ĠHeaven":13101,"Ġvocalist":13102,"Ġincomple":13103,"ĠCurtis":13104,"ĠGeoffrey":13105,"zo":13106,"ĠNak":13107,"Ġsubd":13108,"Ġ123":13109,"Ġreferee":13110,"force":13111,"ĠMol":13112,"rav":13113,"Ġclan":13114,"Ġwidow":13115,"ĠButler":13116,"Ġslower":13117,"Ġextraordin":13118,"ĠFerdinand":13119,"Ġtermed":13120,"Ġchapters":13121,"Ġmushroom":13122,"Ġreminiscent":13123,"ĠKnights":13124,"Ġintersections":13125,"ĠSurrey":13126,"Ġexhibited":13127,"the":13128,"utonium":13129,"ĠBarrett":13130,"Ġdeclaration":13131,"Ġmissile":13132,"Ġallegations":13133,"Ġincred":13134,"ologically":13135,"ĠTherefore":13136,"Ġetc":13137,"ĠAbraham":13138,"Ġwishes":13139,"ulu":13140,"Ġcounsel":13141,"ĠEssex":13142,"Ġovercome":13143,"ĠSpencer":13144,"ĠScreen":13145,"Ġinvolve":13146,"Ġmistake":13147,"Ġdiscipline":13148,"odon":13149,"ĠMadrid":13150,"Ġtactical":13151,"Ġmathematics":13152,"ĠPlymouth":13153,"pect":13154,"ĠPrison":13155,"ĠRight":13156,"ĠCapital":13157,"Ġdisliked":13158,"ĠWald":13159,"ĠFellow":13160,"ichi":13161,"ĠBlake":13162,"Ġcultures":13163,"ĠMetal":13164,"ĠBurger":13165,"ĠRomans":13166,"Ġgallery":13167,"ĠCombat":13168,"ĠGameSpot":13169,"Ġsacrifice":13170,"Ġhunt":13171,"Ġshirt":13172,"othe":13173,"ĠLie":13174,"ĠHeath":13175,"Ġinterference":13176,"Ġmodest":13177,"Ġjoins":13178,"Ġathletic":13179,"Ġquantities":13180,"ED":13181,"ĠFranco":13182,"ĠMovement":13183,"Ġfrog":13184,"ĠTall":13185,"Ġshar":13186,"Ġtransit":13187,"Ġthickness":13188,"zi":13189,"odied":13190,"Ġexpense":13191,"Ġproceeds":13192,"Ġhung":13193,"ĠHond":13194,"ulk":13195,"ĠNL":13196,"Ġresur":13197,"Ġsyndrome":13198,"ĠResident":13199,"ĠMarcus":13200,"wind":13201,"Ġfinger":13202,"alid":13203,"ĠCome":13204,"enne":13205,"ĠAdrian":13206,"Ġcircles":13207,"Ġfights":13208,"Ġcaliber":13209,"Ġnicknamed":13210,"ĠBosnia":13211,"Ġbol":13212,"lend":13213,"Ġassign":13214,"ĠDaniels":13215,"Ġsupporter":13216,"ĠContemporary":13217,"Ġá":13218,"urers":13219,"Ġimported":13220,"ĠPoll":13221,"Ġmachinery":13222,"Ġmigration":13223,"ĠHancock":13224,"ĠBri":13225,"raine":13226,"Ġspores":13227,"Ġinterviewed":13228,"ĠContin":13229,"kinson":13230,"Ġpanels":13231,"ĠRelations":13232,"ĠView":13233,"Ġlocomotive":13234,"ĠBrigadier":13235,"Ġnomine":13236,"Ġrepaired":13237,"Ġrifle":13238,"Ġfatal":13239,"ĠAviation":13240,"Ġwashed":13241,"Ġgaming":13242,"ĠâĢ²":13243,"ĠFergus":13244,"Ġfluid":13245,"ĠTales":13246,"Ġhect":13247,"ĠGaz":13248,"ĠEqu":13249,"ĠSpit":13250,"Ġcontinent":13251,"ĠFlood":13252,"opsis":13253,"ĠFlorence":13254,"icity":13255,"ĠBrew":13256,"olo":13257,"imir":13258,"Ġcommentators":13259,"Ġcustody":13260,"Ġfare":13261,"stand":13262,"Ġjoke":13263,"Ġbankrupt":13264,"Ġshopping":13265,"ĠNobel":13266,"Ġmolecules":13267,"Ġmisc":13268,"ĠPublishing":13269,"Ġproximity":13270,"Ġraw":13271,"ĠReading":13272,"ĠBaldwin":13273,"ĠTasman":13274,"Ġbeer":13275,"ĠKub":13276,"ĠAgricult":13277,"ĠJeremy":13278,"Ġmim":13279,"otilla":13280,"arted":13281,"ikh":13282,"ĠAdmiralty":13283,"ĠUsher":13284,"Ġcurrency":13285,"Ġredesign":13286,"athetic":13287,"ĠSuz":13288,"ĠLead":13289,"ĠNorse":13290,"ĠTwenty":13291,"cious":13292,"nut":13293,"iday":13294,"Ġcurves":13295,"ĠHergÃ©":13296,"ĠVienna":13297,"ĠArkansas":13298,"Ġpronounced":13299,"pit":13300,"ÏĤ":13301,"Ġlip":13302,"ĠBot":13303,"ĠManning":13304,"ĠRomania":13305,"Ġacquire":13306,"ĠJennifer":13307,"ĠPreston":13308,"Ġhatch":13309,"aston":13310,"Ġallocated":13311,"Ġfluor":13312,"ĠLtd":13313,"ĠSib":13314,"ĠLaf":13315,"ĠArticle":13316,"Ġpuzz":13317,"ĠPut":13318,"ĠNum":13319,"Ġcontested":13320,"Ġundergo":13321,"ĠLeban":13322,"Ġsuccessive":13323,"Ġknowing":13324,"Ġseparately":13325,"Ġrulers":13326,"Ġfloors":13327,"ĠBanksia":13328,"xide":13329,"Ġtong":13330,"itects":13331,"Ġreef":13332,"ĠMam":13333,"urbs":13334,"osity":13335,"umar":13336,"ĠStories":13337,"Ġunaware":13338,"ĠShadow":13339,"Ġdemanding":13340,"Ġmemories":13341,"front":13342,"ĠCC":13343,"ĠBuch":13344,"ĠArchitect":13345,"ĠMcDonald":13346,"Ġaviation":13347,"ĠBent":13348,"elfth":13349,"Ġpopulated":13350,"ĠAdri":13351,"Ġ1879":13352,"ĠMotor":13353,"wig":13354,"Ġsect":13355,"alysis":13356,"ĠJG":13357,"Ġdisgu":13358,"ashing":13359,"ungle":13360,"Ġmaneuver":13361,"Ġpreliminary":13362,"Ġdiscussions":13363,"ĠGarc":13364,"Ġgathering":13365,"ĠKes":13366,"Ġpublish":13367,"Ġnorthwestern":13368,"rez":13369,"ĠSuff":13370,"Ġinterrupted":13371,"ĠNewfound":13372,"ĠMinogue":13373,"Ġcomparable":13374,"ĠIdol":13375,"ĠPall":13376,"Ġally":13377,"ĠOw":13378,"Ġproud":13379,"Ġscrapped":13380,"ĠGlass":13381,"Ġzones":13382,"Ġregardless":13383,"ĠElectronic":13384,"Ġdawn":13385,"ĠChase":13386,"ĠMcCain":13387,"Ġcylind":13388,"Ġcylinder":13389,"pes":13390,"Ġbills":13391,"asse":13392,"Ġgolf":13393,"ĠCapitol":13394,"Ġphotographer":13395,"Ġscreening":13396,"Ġfarms":13397,"ĠSkinner":13398,"ĠAllmusic":13399,"ĠOrthodox":13400,"ĠCharacter":13401,"ĠBowie":13402,"Ġdemonstrate":13403,"Ġeditorial":13404,"ĠBengal":13405,"iary":13406,"lass":13407,"eria":13408,"Ġadvances":13409,"Ġcease":13410,"Ġdiscontinued":13411,"Ġchord":13412,"Ġsubsc":13413,"Ġediting":13414,"Ġdamages":13415,"Ġtourism":13416,"Ġmassacre":13417,"Ġinstallation":13418,"ĠHawaiian":13419,"ĠEdmonton":13420,"Ġdynamic":13421,"Ġnineteenth":13422,"Ġpaved":13423,"ĠBog":13424,"ĠHous":13425,"ĠNav":13426,"ĠSponge":13427,"guard":13428,"ĠGrad":13429,"Ġunrest":13430,"ĠPerth":13431,"ĠIndustrial":13432,"Î½":13433,"Ġ141":13434,"ĠLancaster":13435,"Ġhalted":13436,"tz":13437,"istence":13438,"ĠPorts":13439,"ĠSingle":13440,"Ġsporting":13441,"mel":13442,"pat":13443,"urse":13444,"ĠIng":13445,"Ġsubsidi":13446,"ĠNewfoundland":13447,"Ġsew":13448,"ĠWinc":13449,"Ġregained":13450,"Ġambitious":13451,"Ġlicensed":13452,"Ġgravity":13453,"Ġtherapy":13454,"vern":13455,"Ġuprising":13456,"ĠSenior":13457,"Ġseemingly":13458,"Ġneighbouring":13459,"list":13460,"Ġgrain":13461,"atha":13462,"Ġsubtle":13463,"ĠSpin":13464,"ĠTurks":13465,"Ġharbor":13466,"Ġcrowned":13467,"eries":13468,"ĠJur":13469,"Ġbusy":13470,"Ġprojected":13471,"Ġopted":13472,"Ġfunctional":13473,"ĠSep":13474,"ĠCrom":13475,"Ġanger":13476,"Ġcontracted":13477,"Ġinstruction":13478,"Ġprotecting":13479,"Ġdisputes":13480,"Ġcitizen":13481,"Ġadministered":13482,"ĠGonz":13483,"how":13484,"olves":13485,"ĠDh":13486,"Ġperpet":13487,"Ġregist":13488,"Ġcreates":13489,"Ġlessons":13490,"Ġdescended":13491,"bus":13492,"ride":13493,"ĠBear":13494,"Ġgamb":13495,"ĠJen":13496,"Ġdeployment":13497,"ĠBeautiful":13498,"ĠFras":13499,"Ġopenly":13500,"Ġmasses":13501,"Ġdescendants":13502,"ĠCircuit":13503,"Ġbarely":13504,"irk":13505,"Ġjoy":13506,"ramid":13507,"Ġhonest":13508,"Ġprivately":13509,"onnell":13510,"Ġcooperation":13511,"Ġoverh":13512,"Ġcoloured":13513,"ĠSenators":13514,"Ġsymmet":13515,"Ġaccomplish":13516,"Ġorient":13517,"Ġtotally":13518,"Ġcaptivity":13519,"Ġ270":13520,"nan":13521,"ĠCN":13522,"Ġlux":13523,"ĠHoff":13524,"ĠLogan":13525,"ripp":13526,"Ġdeeper":13527,"ĠChop":13528,"Ġgenerals":13529,"Ġcorridor":13530,"ĠMaxim":13531,"Ġnorthwestward":13532,"ait":13533,"tage":13534,"rosse":13535,"Ġ146":13536,"Ġplanes":13537,"Ġcollision":13538,"Ġvolcano":13539,"Ġjumping":13540,"ĠBuddhist":13541,"Ġquit":13542,"Ġatmospheric":13543,"zac":13544,"Ġfile":13545,"ĠMake":13546,"ĠMounted":13547,"ĠShank":13548,"ĠCaroline":13549,"Ġfarming":13550,"ĠJanet":13551,"Ġoutdoor":13552,"dan":13553,"Ġchess":13554,"ĠTiger":13555,"Ġrapper":13556,"ĠMotion":13557,"isphere":13558,"Ð°":13559,"ĠCos":13560,"ĠStore":13561,"lessly":13562,"ĠLouise":13563,"Ġnecessarily":13564,"Ġdelegation":13565,"Ġsteady":13566,"Ġibn":13567,"ĠTask":13568,"Ġnam":13569,"Ġinvented":13570,"Ġdelays":13571,"Ġlacks":13572,"Ġcoalition":13573,"Ġroller":13574,"ĠAdventures":13575,"50":13576,"Ġnests":13577,"ĠRoth":13578,"Ġsuburb":13579,"ĠProtection":13580,"Ġmutual":13581,"ervers":13582,"Ġreiss":13583,"Ġeject":13584,"ĠFM":13585,"Ġcream":13586,"ĠGeneration":13587,"ĠNashville":13588,"oning":13589,"Ġoak":13590,"Ġconting":13591,"Ġdecomp":13592,"ugu":13593,"ĠMyst":13594,"ĠObserv":13595,"ĠBron":13596,"abet":13597,"achelor":13598,"ĠSierra":13599,"ĠBott":13600,"ĠRams":13601,"Ġconve":13602,"ĠKens":13603,"Ġshadow":13604,"aceous":13605,"Ġpresum":13606,"Ġdeveloper":13607,"inae":13608,"ĠÃģ":13609,"ĠOnline":13610,"Ġfatalities":13611,"ĠProductions":13612,"entric":13613,"Ġjokes":13614,"Ġtracking":13615,"Ġdeclaring":13616,"ĠLynch":13617,"Ġexcessive":13618,"Pa":13619,"ĠHarper":13620,"ĠChairman":13621,"Ġgreet":13622,"ĠHamb":13623,"ĠAllMusic":13624,"Ġ149":13625,"Ġelectro":13626,"ĠPalmer":13627,"Ġhur":13628,"Ġrelay":13629,"ĠIC":13630,"Ġteammates":13631,"ĠCommissioner":13632,"ĠCann":13633,"ĠGust":13634,"ĠPlaza":13635,"ficial":13636,"ĠEmily":13637,"Ġcopyright":13638,"Ġinject":13639,"Ġlava":13640,"Ġshops":13641,"ĠAirborne":13642,"ĠHyd":13643,"Ġprohibited":13644,"Ã£o":13645,"Ġgains":13646,"ĠChall":13647,"Ġunemploy":13648,"ĠApart":13649,"Ġkeen":13650,"Ġdivine":13651,"ĠTrip":13652,"ĠYet":13653,"Ġoperator":13654,"ĠParachute":13655,"Ġstruggling":13656,"graduate":13657,"Ġkitchen":13658,"lew":13659,"ĠConsequently":13660,"Ġsixty":13661,"Ġrecognize":13662,"otus":13663,"ovich":13664,"ĠParamount":13665,"Ġhonours":13666,"ĠBusch":13667,"Ġpregnancy":13668,"Ġaggregate":13669,"atem":13670,"isans":13671,"ĠCant":13672,"ĠDid":13673,"achi":13674,"Ġrealizes":13675,"Ġtrophy":13676,"ĠGarfield":13677,"ĠDamage":13678,"Ġcabin":13679,"ĠMaurice":13680,"ĠDrama":13681,"OR":13682,"Ġber":13683,"ĠNothing":13684,"Ġgenerate":13685,"ĠMoz":13686,"ĠDevon":13687,"Ġeliminate":13688,"eli":13689,"ĠHip":13690,"Ġ210":13691,"Ġcalm":13692,"Ġtum":13693,"ĠSqu":13694,"Ġouts":13695,"ĠSpy":13696,"Ġdisappear":13697,"Ġironcl":13698,"nolds":13699,"HA":13700,"ocene":13701,"Ġunst":13702,"Ġbackup":13703,"Ġedges":13704,"Ġstorylines":13705,"Ġparam":13706,"mill":13707,"Ġdug":13708,"Ġminim":13709,"elfare":13710,"Ġoperas":13711,"Ġfindings":13712,"Ġ1848":13713,"Ġmerchants":13714,"Ġauction":13715,"ĠAur":13716,"ĠBast":13717,"Ġclay":13718,"Ġreserved":13719,"Ġdraws":13720,"Ġattractive":13721,"yers":13722,"Ġpine":13723,"ilia":13724,"Ġacquisition":13725,"holm":13726,"Ġincomplete":13727,"ĠOst":13728,"Ġsecular":13729,"Ġsoap":13730,"Ġtransp":13731,"ĠRegard":13732,"Ġlyric":13733,"Ġunusually":13734,"Ġphilosoph":13735,"houses":13736,"ayette":13737,"ĠWid":13738,"Ġ1874":13739,"Ġsurfaces":13740,"Ġriff":13741,"ĠSoft":13742,"ĠGriffin":13743,"Ġmemorable":13744,"ĠHoll":13745,"ĠChancellor":13746,"ĠArctic":13747,"Ġdecomm":13748,"letcher":13749,"Ġridic":13750,"ĠPanama":13751,"Ġremarkable":13752,"ĠSold":13753,"ady":13754,"Ġexperts":13755,"Ġpackage":13756,"Ġproceedings":13757,"Ġstreams":13758,"Ġcaution":13759,"Ġsketch":13760,"Ġreversed":13761,"Ġconjunction":13762,"Ġdors":13763,"Ġspo":13764,"Ġprinc":13765,"Ġtransc":13766,"Ġfreed":13767,"ymn":13768,"Ġadaptations":13769,"Ġunpop":13770,"Ġscenario":13771,"hurst":13772,"ĠSed":13773,"ĠEU":13774,"ĠÂµ":13775,"Ġgrants":13776,"legiate":13777,"ĠLarge":13778,"Ġperfectly":13779,"Ġchances":13780,"Ġimpress":13781,"ĠValent":13782,"Ġsubstance":13783,"Ġruins":13784,"Ġpedest":13785,"istically":13786,"Ġrestaurants":13787,"ĠFinnish":13788,"Ġtennis":13789,"Ġmetropolitan":13790,"ĠBooth":13791,"Ġkeeps":13792,"Ġsufficiently":13793,"mons":13794,"ndum":13795,"ĠHeat":13796,"ĠReform":13797,"ĠHolmes":13798,"ĠDoug":13799,"Ġmotorway":13800,"ĠStarting":13801,"ĠSpongeB":13802,"Ġtab":13803,"ĠHM":13804,"Ġoverd":13805,"Ġshed":13806,"ĠHab":13807,"ĠDian":13808,"ĠJunction":13809,"ĠWindsor":13810,"ĠArmenia":13811,"Ġlobby":13812,"ĠMichelle":13813,"Ġfabric":13814,"pow":13815,"ĠNumber":13816,"Ġ144":13817,"ĠPhant":13818,"Ġdetached":13819,"Ġlifestyle":13820,"Ġworried":13821,"ĠLindwall":13822,"Ġmicro":13823,"Ġallegedly":13824,"Ġveterans":13825,"ĠCec":13826,"Ġresort":13827,"Ġassessed":13828,"Ġmodes":13829,"ĠSerbs":13830,"ĠJacques":13831,"Ġemphasized":13832,"Ġfloating":13833,"anan":13834,"Ġprogression":13835,"Ġtunnels":13836,"ĠTunnel":13837,"hero":13838,"Ġdiving":13839,"Ġhiding":13840,"Ġpled":13841,"ovo":13842,"Ġtopic":13843,"ĠToo":13844,"ĠSolomon":13845,"ĠFormula":13846,"Ġfestivals":13847,"Ġsin":13848,"Ġmuzzle":13849,"ĠYok":13850,"Ġnights":13851,"ĠKoreans":13852,"Ġdemonstration":13853,"ĠArabic":13854,"rolling":13855,"Ġmanifest":13856,"ĠNed":13857,"Ġoverth":13858,"ĠEdwin":13859,"Ġerosion":13860,"Ġincorporates":13861,"Ġloading":13862,"birds":13863,"net":13864,"rozen":13865,"ĠRup":13866,"ipping":13867,"ĠClaire":13868,"ĠGuatem":13869,"ĠStarr":13870,"uxili":13871,"ĠStanford":13872,"brook":13873,"Ġclimbing":13874,"ĠAdvance":13875,"Ġcoc":13876,"istle":13877,"Ġplutonium":13878,"ibl":13879,"ĠSpiel":13880,"Ġspeeches":13881,"ĠSuperman":13882,"ĠSue":13883,"omes":13884,"Ġsty":13885,"ĠRandy":13886,"Ġconsul":13887,"Ġmonitor":13888,"uchi":13889,"ĠBerkeley":13890,"Ġsupplement":13891,"ĠMonday":13892,"12":13893,"ivic":13894,"Ġattachment":13895,"Ġescal":13896,"Ġfloods":13897,"Ġsynth":13898,"ĠLuis":13899,"olades":13900,"ĠLut":13901,"Ġrays":13902,"rano":13903,"Ġobl":13904,"ĠGerald":13905,"Ġcrust":13906,"ĠIllust":13907,"Å¾":13908,"ĠPresley":13909,"Ġputs":13910,"inguished":13911,"post":13912,"Ġfox":13913,"oline":13914,"ĠKiss":13915,"Ġamendment":13916,"Ġinternet":13917,"ĠLegion":13918,"Ġmobil":13919,"Ġprosecut":13920,"Ġdiagnosed":13921,"Ġerrors":13922,"Ġupgrade":13923,"Ġcentres":13924,"Ġmetab":13925,"ĠEls":13926,"Ġinvestigated":13927,"Ġpleasure":13928,"Ġtended":13929,"Ġranged":13930,"Ġappreciated":13931,"anian":13932,"Ġhaul":13933,"ĠMartha":13934,"Ġwarrant":13935,"Ġmodifications":13936,"ĠGuards":13937,"Ġflee":13938,"ushes":13939,"ĠGam":13940,"ĠRecre":13941,"Ġintroducing":13942,"Ġcounteratt":13943,"ĠCuban":13944,"Ġpist":13945,"Ġnaked":13946,"Ġconsent":13947,"ĠZh":13948,"ĠCollect":13949,"Ġmerger":13950,"Ġimmun":13951,"Ġease":13952,"ĠWake":13953,"Ġincons":13954,"official":13955,"Ġcameras":13956,"ĠPierce":13957,"Ġinhabited":13958,"ĠFac":13959,"ĠOber":13960,"Ġbutt":13961,"Ġgenerations":13962,"Ġlineup":13963,"ĠAnti":13964,"lies":13965,"imination":13966,"Ġnotion":13967,"lesi":13968,"Ġsecuring":13969,"ĠJennings":13970,"Ġcomfortable":13971,"penter":13972,"VA":13973,"aude":13974,"Ġitem":13975,"ĠWarwick":13976,"ĠManor":13977,"ĠSoundtrack":13978,"ĠRhodesia":13979,"ĠBulgaria":13980,"Ġbonds":13981,"Ġcompat":13982,"Ġnearest":13983,"ĠAugustus":13984,"Ġthoughts":13985,"Ġconfined":13986,"ĠIrving":13987,"Ġqualify":13988,"Ġthrust":13989,"Ġhamlet":13990,"ĠBroadcasting":13991,"Ġstance":13992,"Ġenable":13993,"Ġ280":13994,"Ġ1851":13995,"ĠFinals":13996,"ĠDelhi":13997,"ĠChapman":13998,"Ġstrengthening":13999,"ĠCommercial":14000,"Ġinver":14001,"Ġorgans":14002,"ĠBelle":14003,"Ġpushing":14004,"Ġrevel":14005,"ĠDere":14006,"rann":14007,"Ġampl":14008,"Ġmaintains":14009,"ĠPrice":14010,"Ġreads":14011,"ĠGabriel":14012,"rators":14013,"Ġcere":14014,"Ġmuscle":14015,"Ġelectoral":14016,"ĠSword":14017,"ĠMirror":14018,"ĠTurnpike":14019,"ishi":14020,"raid":14021,"quet":14022,"Ġstripped":14023,"Ġsoci":14024,"ĠNab":14025,"overning":14026,"Ġartif":14027,"Ġwaterline":14028,"Ġdoubles":14029,"Ġcolleges":14030,"ocaust":14031,"Ġsel":14032,"ĠGas":14033,"apa":14034,"ogical":14035,"ĠYu":14036,"Ġbetray":14037,"Ġspeaker":14038,"ĠGlenn":14039,"ĠHayes":14040,"ĠSpongeBob":14041,"DP":14042,"igu":14043,"veloped":14044,"Ġembarr":14045,"Ġelderly":14046,"isle":14047,"imid":14048,"Ġgraduating":14049,"Ġgrandson":14050,"ĠHopkins":14051,"Ġsus":14052,"Ġfib":14053,"ĠPun":14054,"Ġflags":14055,"ĠSubsequently":14056,"Ġwitch":14057,"ĠSr":14058,"ĠUm":14059,"Ġmonks":14060,"ĠBerry":14061,"Ġensemble":14062,"ĠPrepar":14063,"Ġenthusiastic":14064,"ĠCG":14065,"ĠThings":14066,"osystem":14067,"Ġtool":14068,"ĠAF":14069,"Ġsacred":14070,"ĠSN":14071,"Ġpreval":14072,
[...]
